[PAD
[UNK]
[CLS]
[SEP]
[MASK]
!
"
#
%
'
(
)
*
+
,
-
.
/
0
1
2
3
4
5
6
7
8
9
:
;
?
A
B
C
D
E
F
G
H
I
J
K
L
M
N
O
P
Q
R
S
T
U
V
W
X
Y
Z
\
^
a
b
c
d
e
f
g
h
i
j
k
l
m
n
o
p
r
s
t
u
v
w
x
y
z
ං
අ
ආ
ඇ
ඈ
ඉ
ඊ
උ
ඌ
ඍ
එ
ඒ
ඓ
ඔ
ඕ
ඖ
ක
ඛ
ග
ඝ
ඞ
ඟ
ච
ඡ
ජ
ඣ
ඤ
ඥ
ට
ඨ
ඩ
ණ
ඬ
ත
ථ
ද
ධ
න
ඳ
ප
ඵ
බ
භ
ම
ඹ
ය
ර
ල
ව
ශ
ෂ
ස
හ
ළ
ෆ
්
ා
ැ
ෑ
ි
ී
ු
ූ
ෘ
ෙ
ේ
ෛ
ො
ෝ
ෞ
ෟ
ෲ
–
‘
’
“
”
##ෙ
##ය
##ි
##ො
##හ
##ු
##ර
##ා
##ග
##ේ
##ස
##ට
##්
##ල
##5
##ක
##1
##9
##ම
##න
##ද
##ී
##ප
##ත
##ැ
##ඩ
##ෝ
##ව
##ළ
##ධ
##ූ
##බ
##ණ
##u
##n
##c
##h
##ෘ
##s
##i
##a
##ඳ
##භ
##ඹ
##0
##ඞ
##ශ
##ෂ
##ඥ
##ෑ
##o
##ං
##ජ
##ෛ
##ෞ
##ථ
##6
##ඟ
##3
##N
##ඝ
##2
##ච
##g
##l
##e
##j
##r
##C
##I
##D
##8
##7
##4
##ෆ
##ඤ
##ඡ
##ෟ
##ඉ
##ඬ
##t
##W
##R
##T
##M
##B
##k
##ආ
##b
##z
##ඨ
##ඛ
##S
##A
##w
##උ
##P
##O
##f
##F
##v
##p
##d
##V
##L
##E
##ඒ
##m
##ෲ
##අ
##එ
##y
##ඇ
##K
##H
##U
##ඔ
##G
##Z
##ඵ
##x
##Y
##ඣ
##X
##J
##ඕ
##න්
##na
##ිය
##ක්
##te
##io
##ter
##tio
In
##nal
##natio
##ternatio
Internatio
International
##්ර
##යි
##or
##ාව
Sp
##ort
Sport
##ස්
##ත්
##ුව
##ාන
##ික
##ෙන්
##ne
##si
##ss
Bu
##ness
##siness
Business
##ම්
##ල්
##ාර
##ිර
##ුර
##යේ
##න්ද
##්රී
##යක්
##ර්
##ීම
##ති
##යට
වෙ
##ියාව
##ංක
ප්ර
##ින්
තර
##කු
##න්ත
##ාය
කො
##ිල
ලංක
##ංග
##ට්
වි
ශ්රී
##ණු
##ෙන
ඉන්ද
##ුද
##ිව
##ිත
කර
##නය
##ැන
##ිට
##ගේ
##රු
##ාල
##්ය
##තුර
##ින
ඇම
අව
##ිස
වැ
##ිස්
##ානු
තරඟ
##්රික
##හළ
##ිම
සහ
##දී
##ල්ල
##නා
සං
##රික
##රණ
සම
##ෙකු
##ුප
##ම්ප
ඇමරික
පා
##්ඩ
##ක්ෂ
##ුවන්
ලංකාව
##ණ්ඩ
දෙ
##යා
නව
##ුම
##සිය
ගැන
##යෙන්
##කට
ලංකා
##න්න
##ාද
අද
මිල
ක්රික
ක්රිකට්
##ිරි
##හළට
##ැර
ඉන්දියාව
ක්රී
##ෙයි
##හාර
##ැට
ක්රීඩ
##කුණු
##ාග
වෙයි
##ළි
##වත්
##ාර්
##ීමට
##ැව
##ලන්ත
ක්
ජය
කරයි
##ුස
##කින්
ප්රහාර
කොර
##නී
##යන්
##පති
වෙළ
##ේශ
##ථාන
##මු
අප
##ම්බ
කළ
##ෙර
තරග
මරු
##ලිය
##කිස්
අන
##ොව
##ෝක
##ොල
පි
##ාන්
##තු
##ෙනෙකු
මරුට
##තුරු
මහ
සි
මැ
##ායම
##ාම
##රා
කණ්ඩ
ජන
##සන්
ලෝක
##ුන්
##වන
කා
##ෙන්න
ඇමරිකාව
එක්
##වා
##ගෙන්
චී
##ුණ
##ස්ස
වෙළඳ
පාකිස්
##ාත
හෙ
##ූප
පළ
##ස්ට
##00
කණ්ඩායම
##ව්
ඉහළට
කොට
##තාව
වැඩ
##ලි
ට්ර
##ියාවේ
සුප
##සු
##ම්ප්
ට්රම්ප්
බල
##ීය
##වල
##්රේ
##ත්ව
හම
##ියේ
කොටස්
ගුවන්
සංච
පැ
ඡාය
##තර
කිය
ඡායාර
සුපිරි
පිට
ඡායාරූප
20
##ෙහ
##ෙස්
##වර
##ානය
##නයක්
කිර
##දි
##සී
##කර
##ෂ්
අවසන්
##තා
බව
මු
##ියා
තවත්
මිය
##ායක
දෙනෙකු
##ුණු
වස
විස්ස
මෙන්න
##ියට
##ෙක්
නි
##ාවලිය
අත්
##ොර
වෙළඳප
අග
##යින්
වී
##ාස
සු
කුස
පු
##්ග
##ස්ට්රේ
ජනපති
පර
දකුණු
##හන
##්ල
##ළු
වෙන
පහ
සැ
##ක්ක
අයි
##ුවට
කැ
සිර
ක්රීඩක
##ාත්
##න්දු
වූ
##ර්ධ
රැ
ටෙස්
ලංකාවට
පළමු
ටෙස්ට්
ඕස්ට්රේ
##ප්
ලකුණු
##පු
##වි
##වේ
##රඹ
උතුරු
##ඩු
##ෙල්
##ීමක්
##නයේ
##ියෝ
##ාජ
##තුව
##ද්
නායක
වසර
යළි
##ුම්
##ාවක්
##ීමේ
තී
කියයි
##ඩි
##න්ට
තරඟය
##ැටි
වන
##ියක්
ඇමරිකානු
වාර්
##ැති
##ානයේ
යයි
##මක්
බංග
නො
බැ
ලොව
##මින්
කුසල
හැටි
ඉන්දීය
බ්ර
##කා
එංග
##සියානු
##ාදේශ
එංගලන්ත
ගැට
ඉල්ල
ස්
##ාධ
විශ
බෝ
##වයි
##ුරු
අල
##සේ
වැට
පාකිස්ථාන
##ඩ්
සමඟ
කාන්ත
දේ
##මි
දැ
##ාප
##රණය
##ැබ
##දින
##දාන
ක්රීඩා
අතර
එර
විද
ඇරඹ
දින
අප්රික
##ෝද
##ුවේ
දෙවන
කොරියාව
දි
##ඩා
බංග්ල
කට
##මැති
බංග්ලාදේශ
ගනී
සංචාර
##ාවට
##ොළ
##සි
එරෙහ
පහළට
සිට
##ලේ
##ුවර
##ෙරේ
එක්දින
##තට
##ස්ත
ගිය
##ියන
නවසී
නවසීලන්ත
##නයට
##ිසා
ඉන්දියාවේ
සට
පසු
මැති
අභ
##ුවක්
##දෙ
##ායි
නැ
##ගත්
අනතුර
මාල
##ෝධ
##විත
##ිංග
##මා
##වූ
වා
ආර
ජී
##දා
##ියානු
විර
පිල
##ච්
ඕස්ට්රේල
##ිප
වේ
##යක
පෙර
ඉද
නිසා
පාකිස්ත
##ුත්
කොදෙ
කොදෙව්
අධ
##ික්
සූ
##ධාන
##බ්
සිද
බි
කෙරේ
##ාවේ
හමුද
ඉහළ
දිව
ඉර
කම්ප
තහන
##හැ
ජයක්
ජප
භූ
ත්ර
##ූර
පො
අගමැති
ඇරඹේ
##ුවෙන්
මෝ
සී
##ීන්
ඉන්දු
එස්
##ීම්
අම
සංග
ප්රති
සො
ලබ
##ාන්ය
රට
ඉවත්
රථ
##ලා
තරඟාවලිය
චෝද
වර්ධ
##වෙයි
එක
සැර
##ණය
තරගාවලිය
කිරීමට
විස්සයි
##ියෙන්
##ියාවට
පොල
##ෝජ
රාජ
##ලට
##ද්ධ
##ංශ
කොරෝ
පුහ
තේ
##ග්
##යෙකු
##ක්ර
සිය
##නිම
##ිනි
ආය
##තිය
දෙක
##ාත්ය
බ්රිත
ක්ර
රුප
ඉන්දියාවට
ප්රහාරයක්
රුපිය
##ුන
ප්රහාරය
මුහ
ජීවිත
බ්රිතාන්ය
පන්දු
ඉල
එළ
නිව
සා
##ත්ත
තරඟයේ
හෙට
කුසලාන
කොරෝනා
ඝාත
චීන
ත්රස්ත
යාන
පිළ
සංචිත
හිට
චීනය
වෙළඳපොල
##ගනී
##සක්
නැව
##ේෂ
##බල
දැව
අහ
##ධාර
##ර්ජ
බෝම්බ
වාර්තාව
හිටපු
##පිර
##ිකර
ඉලක්ක
පුද
සූදාන
අය
සේ
##රාජ
ඉනිම
උප
රුස
හද
##කාශ
ආරක්ෂ
ලෙ
වර
පන්ද
##ධි
##ියන්
වීඩ
ගො
යුද
##පත්
##ාට
##ඩංග
##වරණ
වෙඩි
සිදුව
තෙල්
පිපිර
##්ගල
තුන්
මුද
##සියේ
##ගිය
##වලට
අත්අ
රන්
හේ
##යයි
කණ්ඩායමට
අත්අඩංග
රජ
##මක
අඩ
##පා
##ට්ට
සමු
ඇමති
තරගය
ඇෆ
හො
හිම
විරෝධ
ඇෆ්ග
කෝ
##කම්
මිලියන
සෞ
##ිහ
වග
ව්ය
##මිණ
මාලිංග
##ළඹ
පී
පැමිණ
අස
කු
##ටත්
අත්අඩංගුවට
ශූර
##දුර
පුහුණු
තව
හමුදා
පරාජ
##පාද
##පන්දු
වීඩියෝ
ආසියානු
##යකට
සටන
##හස්
අත්හ
පිර
රෝ
##මන්
නායකයා
බවට
තරුණ
##දෙනෙකු
##ෙහෙ
පහර
##කච්
##ණ්ඩල
වෙළඳපොළ
සාකච්
ලෙස
වෙන්
මෙහෙ
මණ්ඩල
##කරු
##මත්
වාසිය
ආර්
තීරණ
##ාන්ත
##PL
පෙ
එරෙහිව
පුද්ගල
සාකච්ඡ
අහිම
##ස්ථ
##ුර්
##ුමක්
ඇමරිකාවේ
හෙළ
ඩොල
##ටර්
##ඛ්ය
##ින්න
වර්ධනයක්
යුර
##ැයි
##දු
නිෂ්
##සියාවේ
##වැ
යුරෝ
##යෙක්
ඉදිර
බිල
##නිස්
##ිකයන්
##ිවිස
නිෂ්පාද
##ෙල
විශේෂ
ඉලක්කයක්
##න්තර
ගිනි
ජාත
##නි
සංචාරක
ලැබ
හැ
##ර්ශ
සංවි
ඇෆ්ගනිස්
ආර්ථ
10
නී
පිත
විදේශ
පාකිස්තාන
චන්ද
ලක්
##ගත
##බි
රු
##කාර
##කරුවන්
නැහැ
ඇෆ්ගනිස්ථාන
ආර්ථික
IPL
##මණ
##ීර
මැතිව්
##ාබ්
##යිල
##ුදු
අලුත්
ඉන්දුනී
චෝදනා
දේශ
##ේප
##සුම්
නග
##ිබ
ප්රකාශ
වෙනස්
ඩොලර්
කඩු
නිර
හි
##ිමා
##මේ
##දේ
##තක
ප්රබල
ඕස්ට්රේලිය
##ොට
##ීක්ෂ
රාජ්ය
ගොඩ
සඳ
##ොත්
##දප
##ක්ෂයට
බැංක
සැරසේ
නම්
නිල
##යින
පාපන්දු
පිටිය
නිද
රැක
තායි
##ැන්ත
##න්ධ
දිනය
දැවැන්ත
සූදානම්
15
කඩා
ගිවිස
ජාත්ය
නුවර
මියයයි
තීරණය
ප්රහාරයකින්
##ංහ
පිළි
එරෙහි
කාල
දුම
මිස
යි
##න්ඩ
කරමින්
ජාත්යන්තර
##ග්ර
වැඩි
කම්පනයක්
මිසයිල
කල
##වර්ධ
ඝාතනය
##ධිපති
තු
තැබ
##ාවෙන්
##වලින්
එල්ල
##හා
මියගිය
දී
##මන
ප්රධාන
කොළඹ
##ාගාර
අධික
##ශ්
##ියෝග
කාන්තාව
මෙහෙය
ඔලි
වට
ප්රංශ
##00ක්
සොයා
19
පැර
##ම්පික්
කාසියේ
නැවත
හේතුව
දර
##සල්
තරඟයට
අපනය
ඔලිම්පික්
තොර
##කි
##යේදී
විස
කොරියානු
චීනයේ
රුපියල
ගොව
##ගෙන
##සා
##ඳු
ජනා
දක්
යු
වෛ
කරන
201
සම්බ
##da
අනතුරු
පරීක්ෂ
ගැටුම
වාර්තාවක්
හදිස
ජනාධිපති
අතුර
ආද
ඔබ
ගැ
සාම
##ොන්
##ීමකින්
පාල
##ලු
කණ්ඩායමේ
##date
##ගී
##ලින්
##වීමට
##pdate
ලංකාවේ
ඉරාන
දෙකක්
දුම්ර
තැන
පද
සීම
##ුදන්
සංඛ්ය
වෙළදප
##ත්වය
කාන්තා
යානයක්
අතුරුදන්
අන්ත
මාස
##මාර
##වන්
කරන්න
සිම්බ
රුසියාව
අස්
එල්
යන
##ේක්ෂ
##ත්ර
මහා
දැඩි
##ටික
##නයෙන්
එළව
සිම්බාබ්
වෙන්දේ
ජපාන
මෝදි
##ෝජන
සිදුවූ
අහිමි
##වාද
##ාගෙන
ක්රීඩකයන්
තුව
තුර්
##ාපති
සමාග
##ාගත
ජීවිතක්ෂයට
ජාතික
සිම්බාබ්වේ
Update
බස්
##ොං
##ලූ
එළවළු
උණු
නොව
පිය
##ේද
11
ජල
ජගත්
##වී
පිටියට
තහනම්
##ක්රමණ
ආරක්ෂක
මැතිව්ස්
ආස
කල්
මො
මරණ
##ුක්
ව්යාප
12
මෙ
##සට
##මයි
ඕස්ට්රේලියාව
පන්දුව
17
##ෂ්ඨ
වසරේ
සේව
දිය
##දෙන
##තම
ඉල්ලයි
පුර
ලා
##ිල්
අවදාන
සුළි
එංගලන්තය
දක්වා
එයි
හමුව
පිරිස
සංඛ්යාව
තුවාල
13
අමු
##ධානය
##බඳ
සංක්රමණ
අදයි
හමුවේ
ඔබාම
උළ
එන
කම
ගත්
ඩො
දූ
දැර
පකිස්
##හාස
##රය
බිලියන
රුසියානු
ඉව
භා
ලක්ෂ
සෙ
##ුල්
##ෝන
##ම්ම
මැද
අනතුරකින්
ආනය
රො
ඇමරිකාවෙන්
වාර්තා
වේග
තුන්වන
දු
##්ධ
##වීමක්
අර්
න්ය
##ටි
##ක්ම
##ුවා
##ානි
##තින්
##ෂ්ටික
සංචිතය
සඳහා
න්යෂ්ටික
ගණ
ගින්න
##ෂණ
හෙළි
සභ
##ටින්
##වන්න
ඇමරිකාවට
සැක
රග්
ප්රාන්ත
##ිවේ
රග්බි
##ෝග
##ස්ථාන
##ාත්මක
මැතිවරණ
නීති
කඩ
පූ
ලො
ලැව
##ෘත
##ිටුව
සිටි
මුහුද
භාණ්ඩ
ණය
##ුල
##ේස්
##ංච
##ිකාව
##ර්මා
##ීමෙන්
##තිහාස
ක්රීඩකයා
ආයත
14
ඇති
කුම
මූ
දෙදෙනෙකු
ඉල්ලා
##ිපී
දිවයින
##දුරටත්
තවදුරටත්
අත
මධ
##හි
##ෂික
##ිමේ
සමග
බලාප
මුම්බ
##ොරොත්
පදක්ක
දුර
##ගැන
##ේම
දෙයි
ගැනීමට
පිලිපී
මෝටර්
සෞදි
පත්
##හන්
##දර
##චාර
##්රා
##ිවෙයි
පාසල්
##වරයා
සාකච්ඡා
චන්දිමා
චන්දිමාල්
පහළ
##ශ්ර
බලප
කෝලි
ඉවතට
බලාපොරොත්
මුම්බායි
උත්
භාර
##CC
සංවර්ධ
අභ්ය
මර
##මට
##වරණය
සිරියාවේ
16
ඇතු
දඩ
පැව
##ණයක්
##0ක්
අවස්ථ
දුම්රිය
ICC
බේ
මාර්
විය
වර්
ශතක
හර
##වරු
##ණි
##ායම්
සැම
දර්ශ
##කී
ඕස්ට්රේලියානු
පකිස්ථාන
මධ්ය
ඉරා
මැර
##හිර
##බර්
කුසල්
පහත
##ප්ප
නිදහස්
පියවර
ඉරාක
මින
යාම
##හො
##රාධ
පොලිස්
ගන්න
ගමන්
තබ
ධුර
ලොවම
පාර්
##කළ
ජයග්ර
බො
සුර
##ේ
##සික
##බැ
##ෂණය
##න්ගේ
මිලදී
මුදල්
විරෝධතා
ෆේස්
##හල
##ළඟ
##ඬුව
##ුණාට
ට්රම්ප්ගේ
##ාධ්ය
ලබන
පුහුණුකරු
අත්හදා
බලාපොරොත්තුව
අර
##නල්
##නුවර
##ජි
##මුණ
පරද
වෙනුවෙන්
කැඳ
නවසීලන්තය
තීරණාත්මක
ඉන්දුනීසියාවේ
නගර
නැවතත්
කුණාට
ගෙන
බාධ
##ිළ
##රි
##ෆ්
##ිකරු
සමාජ
කිරීමේ
අලෙ
චෝදන
පොලී
සංවිධාන
කඩුලු
උණුසුම්
ඔබාමා
25
නිය
##ීර්
දිල්ල
18
උඩ
නේප
අවුර
පොල්
වෙළඳපොලේ
ශූරතාව
සභාපති
##ර්මාන්ත
නේපාල
##ාවක
##ුවෙකු
අනුම
පුටින්
ඕස්ට්රේලියාවට
තහනමක්
ජපානයේ
පහරද
තුර්ක
පිරිසක්
##කයන්
##ානුවන්
ගිවිසුම
ඇඟ
මත්
මාධ්ය
##හැර
##ලල
##ැන්
සහය
පහතට
##ිහිප
නිලධාර
වෙන්දේසිය
000
කි
තත්
සිස
##ේදී
##ථම
කොරියාවේ
අප්රිකාවට
ඉදිරි
ඇෆ්ගනිස්ථානයේ
ඉතිහාස
ගෙ
##ළුව
##න්මාර
විනා
අපේක්ෂ
මියන්මාර
සැල
##ොටුප
වෛර
අනුමැ
ඉත
කින්
කතාව
කර්මාන්ත
බොර
මව
##දේශ
##ල්ය
ප්රථම
සහල්
කිරීම
වෙළඳපළ
ප්රකාශයක්
අපනයන
ඩොනල්
100
ඉක්ම
ගේ
ගුව
දඬුව
බිරි
##ගුණ
##ද්ය
පෙරමුණ
කුඩා
දෝ
දෙන
යට
හැව
##වීම
##තිමත්
කුසලානය
##ිකරුවන්
පැමිණි
සීමා
ලොකු
පාර්ල
ජයග්රහ
කිහිප
මේ
ලී
##රයි
##ම්භ
##ිරිදි
##ාධක
නවසීලන්තයට
යුරෝප
යුරෝපා
අනුමැතිය
21
අරඹ
යානය
සිංහ
ට්රම්ප්ගෙන්
ගැටුම්
පාකිස්ථානය
බංග්ලාදේශය
වෙළදපොළ
##ිමේන්ත
විනාශ
ඊශ්ර
කෘ
දරු
සිව
##හස
##ලෝ
##වල්
##ෙන්නා
අභියෝග
ඕස්ට්රේලියාවේ
යුද්ධ
තුළ
අර්බ
පාර්ලිමේන්ත
ගං
මෙර
හානි
##ීන්ට
##ෑම්
තරගයේ
කොරියාවට
ආදායම
ආසාද
ඊශ්රාය
බදු
බිරිඳ
අර්බුද
ඊශ්රායල
මත
ලිංග
##මය
##ෝල
##ඞ්
අවස
දැම
හදිසි
හැවිරිදි
චෙන්නා
පන
##තික
ගැනේ
සටන්
වාහන
බිල්
පරාජය
තායිලන්ත
තොරතුරු
බාධා
ඩොනල්ඩ්
අරඹයි
චෙන්නායි
අඩු
ජර්
නයි
මී
මාර
යැව
##ාහ
##වෘත
විවෘත
##ිසර
##වාහ
අප්රිකානු
නිෂ්පාදන
යුතු
ග්ර
ශක්
හෝ
ට්රම්ප්ට
අගනුවර
සිරියානු
යළිත්
කුසලානයේ
ඉල්ලීමක්
තරගාවලියේ
ඉදිරියෙන්
අරා
ශ්රේ
##හල්
##ගම
##වු
##බුක්
##වාදී
##ත්වයක්
##සීල
සුළු
බ්රසීල
අප්රිකාව
යානා
හොංක
අවුරුදු
මෙරට
ලිංගික
පාර
රංග
හා
මහේ
මැලේ
හේතුවෙන්
දුරක
ආධාර
උද්ධ
කෙ
යොව
ලේ
##යින්ට
ස්ථ
පිළට
අඩුව
ගොවීන්
කමිට
ෆේස්බුක්
බිල්පත්
යොවුන්
23
ආහාර
හයි
##දිව
##න්ජ
##ියම්
අවි
##යන්ගේ
හෙල
පිටියේ
එංගලන්තයට
කොදෙව්වන්
හොඳ
පූර්
මරාගෙන
දර්ශක
ඉක්මවයි
උද්ධම
ඛාන්
තර්ජ
හැර
##ැත්ව
##ිසිය
කණ්ඩායම්
පළම
රැස්
පිතිකරු
##සටහන
උළෙ
දිවයිනට
ඉතාල
ආසාදිත
හොංකොං
30
##යු
##ක්ෂේප
මුල්
වෙනසක්
##මිල්
විදු
තවමත්
තීරණයක්
ලැබුණු
පුරා
මාර්ග
මැරෙන
කතා
තන
##ැම්බ
##තුවේ
ස්ථාන
ප්රතික්ෂේප
සැරස
වීඩියෝව
උත්ස
රංගන
අල්ල
උඩු
කැර
##ඹු
විප
අවධානය
##ාගෙන්
##යින්ගේ
විශාල
වැටේ
පාකිස්තානය
ගොඩන
පැරද
ගණන
ලැව්
දුරකථ
22
කඳු
ධන
නෞ
බිම
මා
##ෙරික
##යකින්
ප්රහාරයෙන්
##ව්ව
##ප්ත
ආරම්භ
කාලගුණ
සම්බාධක
මොහො
ව්යාපාර
මූල්ය
ශක්තිමත්
31
ඇද
තිසර
තමිල්
බී
##ුවත්
##ාර්ය
ජයලල
පරදා
කැම
රටවල්
ආයෝජන
වගා
අත්හිටුව
සම්බන්ධ
කිම්
තමිල්නා
ජයලලිත
24
අන්
ගත
##රේ
##මීර
අපරාධ
##ද්ද
පිළිබඳ
අධිකරණ
භාණ්ඩාගාර
දරුණු
මහේල
ඡන්ද
ටොන්
දමයි
මග
මවිත
වික
##ටන්
##ප්ර
##ැග
##ර්ලන්ත
ඇමෙරික
##යාට
අමාත්ය
රථයක්
දැවී
පිපිරීමකින්
අන්තර්ජ
හමුවෙයි
##වරුන්
නවත
මහබැ
ක්රීඩාංග
කටයු
පිලට
පෙරළ
සියල්ල
අලුත්ම
මෙහෙයුම්
පරීක්ෂණ
අවදානමක්
සංවර්ධන
චෝදනාවක්
මහබැංක
තම
දුන්
##ිංහ
##රයේ
##මෙන්
බලා
රැසක්
පාකිස්ථානයේ
කාන්තාවක්
රුපියල්
අමුතු
අලෙවි
වෛරස
ජර්මන
50
ගිල
ලන්ඩ
##තෙල්
ක්රියා
පෙම්
හදිසියේ
සංක්රමණිකයන්
නියම
ලීග්
අඟ
තිබ
දැන
නික
යාත
##නේ
##වීමේ
##ණිය
##ිලෝ
දෙදෙන
පාකිස්ථානයට
පැවැත්ව
උද්ධමනය
ගොඩනැග
යේම
සම්ම
ළම
##ාගේ
##නික
##පිළ
##තාගත
##න්දුව
ප්රහාරයේ
වැඩසටහන
##ක්කාර
##ද්දී
වාර්තාගත
වැටී
ලේකම්
27
තිය
දහ
දා
නෑ
යෝජන
සරණ
##ගන්න
##පිට
##ඳව
##ස්ක
නොස
බැල
කොරියාවෙන්
තරඟාවලියේ
කඩාව
26
අංශ
ඉම
තුන
පව
පෙන්
පක්ෂ
මල
##ිල්ල
##ටු
##ශ්ය
##න්ත්ර
විවාහ
ප්රහාරක
කළඹ
විශි
බංග්ලාදේශයට
ඉරානය
##යෙකුට
පන්දුවට
ඉදිරියේ
අන්තර්ජාල
කටයුතු
පෙම්ව
සරණාගත
කැන
ජොං
දඹු
පැන
මි
මෙක්
යානයේ
සුද
හතර
##්ව
##නිය
##ිලි
##ිනා
ජයගනී
වැඩිම
දෙනෙකුට
##වේදී
සිදු
සේවා
##ියන්ස්
හිඟ
බලපෑම්
වර්ෂ
පූර්ව
අත්හිටුවයි
මෙක්සික
IS
ඇග
ඉන්ධ
කන්න
ජෝ
නතර
මළ
##ොප්
##සීම
##ීන
##ණයට
##ුවෙක්
සහතික
වැඩපිළ
පරදී
නායකත්ව
සංගක්කාර
ලබයි
රජය
වගක
අස්වෙයි
ස්ථාව
විශිෂ්ඨ
ඉන්ධන
වැඩපිළිව
කිරි
තො
නිම
වලට
##වාර
##බාන්
##්රව
##්රාන්
වින
සහන
ක්රීඩිකාව
තරගයට
චීනයට
සුළඟ
සංගම
ක්රම
එළියට
චීනයෙන්
නොවන
සංක්රමණික
නයිජ
ඉම්රාන්
මෙක්සිකෝ
200
කාර්ය
දස
පුප
##ේන්
ඉන්දියාවෙන්
##ුසිංහ
සිංග
අතරතුර
විද්ය
තරගාවලියට
මුහුණ
සාමාජ
සිව්
දඹුල්ල
පුපුර
ඊයේ
ඊජි
කාර්
ගා
තා
සාග
##ුත
##දිය
##ීත
##ෑණු
##්රාම
##ර්ම
වැස්ස
##නාම
සමුද
##ාර්ථ
එකඟ
##ට්ටු
කෝටි
පෙළ
සංවිධානය
ඕස්ට්රේලියා
වෛද්ය
බේර
ඇඟවීමක්
තොග
33
37
අතට
බෙ
රත්
සත්
##රළ
##පාල
වෙත
##ැනි
##ානුෂික
අනු
කාශ්
##වරම
බෝල්
අමානුෂික
නිෂ්පාදනය
පාකිස්තානයට
තැබීමකින්
දරුවන්
පාලක
බොරතෙල්
නෞක
##්රව්ය
000ක්
යන්න
හිල
##ොස්
##ියක
##ිකරණ
වැළ
පැහැර
සංගා
පුහුණ
මණ්ඩලය
විසින්
ඉරාකයේ
යේමනයේ
සිංගප්ප
කාශ්මීර
චැ
තහ
පස
පල
මගී
යවන්න
සෝ
##ොක්
##තිර
##වන්ට
##ිකොප්
##ෙන්ඩ
ඉන්දියා
වැර
##ාද්
පිත්ත
##ලිෆ
ලබාද
වර්ධනය
නිවේද
කුසලානයට
රජයේ
උළෙලේ
වැඩපිළිවෙල
ඊජිප්
කිලෝ
ගාන්
දෙන්න
පාව
ශ්ර
##ුබ
##ලක්
##නාව
##ීවර
##ෂාන්
අවම
වැසිය
ගැනීම
අප්රිකා
බිඳ
තරඟාවලියට
විරෝධතාව
නිර්
මුහුදේ
හෙලිකොප්
##ාර්ථක
අල්
කම්
තොටුප
ධීවර
පස්
පත්ව
මංග
##කදී
##පය
##න්නා
කොල්
##ංගු
තරඟයක්
##ාගත්
ක්ෂ
පැය
නිළ
වෙනිසිය
ස්ට
සිටින
මාලදිව
පාකිස්තානයේ
කම්පනයෙන්
තේර
පිපිරීමක්
පිතිකර
බැංකුව
ප්රධානියා
ලාංක
දූෂණය
පදක්කම්
ශතකයක්
හෝට
විදුලි
මලයා
ගුර
බහ
බර
රිය
සත
සම්
##සියාව
##සින්
##කම
##කෝ
##තේ
##ැක්
මිලට
##යන්ට
කැළඹ
බැඳ
අලූ
රුසියාවට
දේශීය
කාන්තාවන්
සැමියා
වෙන්දේසියක්
තනතුර
සැරසෙයි
ළමයින්
කොල්කට
අර්ධ
කන්ද
ගමන
පියා
රහ
##හොර
##කාම
##දර්ශ
##බාධ
##20
##ුරුම්
තරංග
##ුපාත
අනුපාත
ජනතාව
සුබ
පරි
##විඩ්
නායකත්වය
වැටීමක්
පොහොර
ප්රතිචාර
අයවැ
සමුගනී
පරාජයක්
ගිවිසුමක්
මාසයේ
පිලිපීනයේ
අරාබ
තියුණු
නයිජීර
60
නියෝග
බට
##ලෙන්
##ලීම්
##දීම
##පල්
##ෝර
##ංජ
##ථා
##න්ග
##ත්මක
##ිවූ
පිහ
වැඩේ
කැලිෆ
ක්රීඩකයින්
වනදා
විදෙස්
සංචාරය
අනතුරට
අධි
අධිවේ
මුහුදු
බ්රිතාන්යයේ
සිදුවන
නිදහස
වටයට
උළෙල
##ංචි
##හන්සේ
මධ්යස්ථාන
උත්සව
කඩාවැට
විනිස
හිලරි
3ක්
කේ
ති
මුර
යො
ළඟ
##්ඤ
##ලක
##පැ
##ණයේ
##ෂා
##ෑම
##ෑස්
##ඤ්ඤ
##ිරිස්
##ායු
##ාගනී
කළු
එක්වෙයි
සුපර්
නොමැති
දිනූ
මණ්ඩලයේ
හෙළිවේ
කලාප
සමාගම
දූෂණ
ගින්නකින්
##ගැනීමට
##දරව්ව
අභ්යාස
යාමක්
අභියෝගයක්
ස්ථාවර
කැලිෆෝන
28
අර්ජ
ගි
පද්ධ
මව්
වාර
සතු
##මික
##භ්ය
##ියෙකු
##ියකට
ප්රභ
##ාගැන
කාබ
පැතිර
නොද
කොදෙව්වන්ට
දිවි
තහනම
##ිකරයි
ආරක්ෂාව
අසභ්ය
දේශසීම
අන්තර්
ජපානයට
ලැව්ග
සැලසුම්
මාරුත
ආසාදිතයන්
වෙනිසියුල
එම්
ගුණ
දිම
නාය
මඟ
වය
වතුර
සබඳ
##රත්
##සත්
##නට
##ඩෝ
##්රෝ
##ාවිත
##ිකා
ප්රදේශ
##ාලි
තරඟයෙන්
පාප්
ලංකාවෙන්
ගැනීමේ
##ුසු
එක්වරම
##ාසා
##සිද්ධ
මැතිවරණය
ආයෝජ
සමුළ
සෞද
ආනයනය
කුමරු
සුරූප
දඬුවම
හයිද
බෝල්ට්
බටහිර
දිමුත්
35
ඇල
එන්න
එපා
කප
නැති
මන්ද
රි
රාහ
වායු
##සිර
##ලාදේශ
##ෝර්
##ූණු
##ියර්
විවේ
##ිතුරු
වෙනුවට
බංගලාදේශ
දිනයි
දිවුරුම්
අයර්ලන්ත
සෞඛ්ය
හෙළිවෙයි
ඉදිරියට
ප්රකාශයට
මෙහෙයුම
ප්රංශයේ
දියණිය
හෙළිදරව්ව
ඇතුළු
දඩුව
තබයි
දිල්ලි
ගේල්
තමිල්නාඩ
වැඩපිළිවෙලක්
ගාන්ධි
රාහුල්
ඔස්ට්රේ
ගෙන්
ඩිල්
තල
ධාව
නියෝ
පෘ
මන
විල
##රී
##ට්ර
වැසේ
සමරයි
අතරට
බංග්ලාදේශයේ
පුද්ගලයා
දේශපාල
බැංකු
තායිව
තුර්කි
අවස්ථාව
කැඳවයි
පොලීසිය
සිසුව
යුතුයි
නියෝජ
ගහ
ගිහ
ගෑස්
##ෙළ
##තුම
##ැක
##ැස්
##බාද්
##ියස
##ල්ම
##ල්ස්
ප්රසිද්ධ
ඉන්දිය
##ක්ෂණ
අදත්
බලයි
කැප
ස්ව
වැටෙයි
ඉරානයේ
ජපානය
නිවාස
තරඟයේදී
මුදා
සමුළුව
අසරණ
##ස්ථාන්
හෙළිකරයි
තැබූ
ගුවන්ත
මීළඟ
විපක්ෂ
විශාලතම
දුරකථන
කැමර
ජර්මනියේ
ගොඩනැගිල්ල
සාමාජික
40
කඳව
තාන
බසී
රාත
සයි
සන්න
සාර්ථක
##සස්
##ලක්ෂ
##කර්
##බෝ
##න්තොට
##ංගම
සංවේදී
මහම
ලෝකයේ
එක්සත්
කියපු
##දිග
අත්සන්
සිරියාවට
##ුම්කර
දේව
ඇරඹෙයි
දිග
අභියස
නැං
##ච්ච
හමුදාව
රාජස්ථාන්
උපන්
ලැබූ
බැංකුවෙන්
පිළිගනී
විසඳ
දුෂණය
මියන්මාරයේ
පෙරමුණේ
දැමූ
තායිලන්තයේ
පළමුව
මගීන්
යාත්ර
නොසිත
කැනඩ
වැසියන්
තේරීම්
අලූත්
හයිද්රා
ගුවන්තොටුප
තානාපති
29
ඇවි
කෙර
භාවිත
රහස්
සුව
හුව
හතුර
හිස
හම්බ
##ාබ
##ේන
##සිල
##ෘති
##න්ද්ර
අවල
හමුවක්
ජනපතිට
නොහැ
ප්රතිපත්
හැකි
ලක්වෙයි
##වාදය
##ෝගි
බලාපොරොත්තුවක්
තත්ත්වයක්
කිහිපයක්
ශ්රේණි
මොහොම
ලන්ඩන්
දැනුම්
හුවමාර
හතුරුසිංහ
හම්බන්තොට
300
ආබාධ
ඉඩ
ගම්ම
නාව
බැර
මෙන්ඩ
වළ
සන්
හිර
##සුම
##තයි
##ෑමක්
##ාවකට
දෙව
පිටුප
##කරන
වසා
කැන්ග
දැල්
##සිත්
සියයට
රුසියාවේ
වගාව
මෙහෙයුමක්
දැරියක්
පදක්කමක්
ශතකය
තුර්කියේ
ශ්රේෂ්ඨ
සියල්ලන්
වගකීම
මංගල
ගිහින්
මෙන්ඩිස්
කව
ජංගම
ප්ල
සංක
##ිභ
##රුවන්
##පන්දුව
##විර
##බද
##ෆි
ප්රම
ප්රශ්
##ිත්ර
අවශ්ය
වැද
තරගයෙන්
අගය
ක්රීඩකයෙක්
රැගෙන
ලොවක්
සොය
රෝග
නීතිය
පිතිකරුවන්
ලක්වූ
##කරුවන්ට
කඩුලූ
රැකියා
දරුවා
අපනයනය
පරීක්ෂණයක්
පන්දුවාර
දැරිය
වේගවත්
අවස්ථාවක්
වියට්
ධුරයට
පරදයි
ජයග්රහණය
අල්ලයි
කාර්යාල
සිංගප්පූර
සුරූපී
ශ්රේණිගත
ශ්රේෂ්ඨාධ
45
ග්රී
දඟ
න්
බද්ද
යුව
රබර්
ලසිත්
වන්ද
වලින්
##ටම
##ලී
##පත
##ූර්
##ජන
##ාවලි
කොංග
විම
ඉන්දියානු
මිලේ
පිටියෙන්
##කරයි
කැබ
ස්පා
දිනු
නවසීලන්තයේ
සංචිතයට
පුදුම
වරාය
තරුණිය
තරුණියක්
ඉන්දුනීසියානු
නිරුව
මෙවර
තබා
නේපාලයේ
සටන්කාම
පාරිභ
වෛරසය
වර්ෂාවෙන්
සෝම
කොල්කටා
අවලංගු
ස්පාඤ්ඤ
06
32
අසී
අළු
ආසියාවේ
කුරු
ගෝල
සෙල්
හය
##ෙට්
##රව
##සයි
##කොන්
##තක්
##ෑන්
##්රි
##ත්තු
##ල්ක
##ිවු
සහිත
වරද
පිපිරීම්
##මේල
පැරිස්
යුක්ර
සමාගම්
ප්රාන්තයේ
කෘෂික
දර්ශකයේ
අපරාධය
නවතී
වැඩසටහනක්
කන්නයේ
බැඳුම්කර
නයිජීරියාවේ
කඳවුර
නොසිතූ
හයිද්රාබාද්
අක
ආරාධ
උතුර
පණ
හිත
##යකු
##රිය
##සූ
##සුන්
##කරණ
##කයින්
##මුද
##වතුර
ප්රවර්ධ
කරුණ
පාස
පාඩ
දෙයක්
##ලියට
සිහි
කණ්ඩායමක්
පහසු
සැපය
සිරුරු
පසුගිය
##ෝධී
බිහ
ඇෆ්ගන්
සටනට
පිරිම
තොරව
රුසියාවෙන්
කමිටුව
ආනයන
රොක
මුහුදට
ගංවතුර
අඩුවෙයි
තර්ජන
ධනංජ
බැලීම
පලස්ත
මාලදිවයින
සම්මේල
කැබින
ඒකා
ගු
ගින
ජාව
රතු
වරා
##ොට්
##ගාර
##ද්රව්ය
##වස
##ජී
##ස්ය
වෙරළ
##කුණ
##ංගලෝ
##නයක
නවතම
##ුමෙන්
මිලක්
ප්රහාරවලින්
##ාසනාව
නායකයන්
බැංගලෝ
විශ්
වැටුණු
සංචාරයට
විරාම
පිලේ
##ෝජනා
රුපියලේ
රජු
විරෝධය
වගාවට
හැසිර
තුන්ද
ආයතනය
අරමුද
සංවිධානයෙන්
අර්බුදය
ග්රහ
ඇගවීමක්
පුහුණුව
සංකීර්
පාරිභෝග
500
ආගම
ඩේ
නඩු
මට්ට
රස
ලියා
හාන
##රයක්
##ටා
##වුරු
##ූරු
##ජ්
##ථිව
##ක්ට
##ිවන
එක්වූ
##වරයෙකු
ජනපතිගෙන්
##මිත්
සංචාරයක
##මාල්
ක්රිස්
අඩුවක්
රෝහල්
##ිකයන්ට
##කාරී
ගොවීන්ට
2016
ඉරානයට
වෙළදපොල
සෙබල
නීතිවිර
වියද
මිනිසා
කුණාටුව
අලෙව
මත්ස්ය
යුරෝපයේ
අවසානයේ
බ්රසීලයේ
බිමට
ලාංකික
මුරලි
ගිණු
සබඳතා
දේවස්ථාන
ප්රතිපත්ති
නාවික
කැන්ගරුවන්
ධනංජය
කැබිනට්
නීතිවිරෝධී
400
70
80
එච්
දකී
නාම
පෞ
පැට
පන්ජ
මර්
යලි
යාප
සෙන
හයේ
##ෙද
##ෙත්
##හිත
##ලයි
##කිර
##මාර්
##පදි
##ෝක්
##වමින්
##ෑග
##ජු
##ියදී
##න්දුවක්
##ර්ඝ
ප්රේක්ෂ
කොම
##ිලී
##ෙනිස්
##ාලා
##ාලික
##ල්ලක්
ප්රහාරයට
අනාව
##තාවක්
කිරු
සැප්ත
පොත්
ලබා
##ුනු
නිව්ය
ත්රස්තවාදී
වරට
වරටත්
හේරත්
හිමි
පරාජයෙන්
සටනේ
රෝහල
බිලි
චන්ද්රික
දීර්ඝ
ආදායම්
අස්වැ
ගින්නක්
තත්ත්ව
දඬුවම්
හොඳම
ඉතාලියේ
##ැම්බර්
සම්මාන
දහසක්
යෝජනාවක්
ප්රභේද
පෘථිව
සයිබර්
අසීරු
පලස්තීන
ලියාපදි
36
34
ඇන්ජ
ඔත්තු
කශ
කථා
ගල්
මරණය
යල
වතු
##පද
##තියක්
##ෝස්
##ෝල්
##ූන්
##බද්ධ
##භාග
##ශෝධ
##ාවලට
ප්රච
##ුද්
##ිතුර
##්යා
අවධාන
##ල්ලූ
සංශෝධ
##යාංශ
අදිය
##ෙයිබාන්
##තුම්
සිල්
පළතුරු
කිරීම්
විස්සේ
සිරුර
##ාත්යාංශ
මාලි
ඉරිය
අමාත්යාංශ
තුන්කොන්
මාලිංගට
ශූරයන්ගේ
ආර්ථිකය
රාජ්යයේ
නුවරට
##ශ්ච
වටිනා
ජනාධිපතිවරණ
කරන්නැයි
මෝදිගේ
උණුසුම
ගණන්
කඩින
පිලිපීන
අවසර
මළල
චැම්ප
තහවුරු
හෙලිකොප්ටර්
ලැව්ගිනි
හෙළිදරව්වක්
ඩිල්ෂාන්
තලෙයිබාන්
දේශපාලන
නැංවීමට
ඒකාබද්ධ
කශෝගි
කණ
කිස
තාවක
වර්ජ
ශාන්ත
සර
සති
##ිද
##හය
##රයට
##වැට
##ිකිර
##ිකුරු
ප්රදර්ශ
විචාර
##ුද්ධ
##නාගාර
##රණි
ඇමරිකා
දෙප
අපේ
බලය
කියන
කියුබ
##තුවක්
සටහන්
අගමැතිට
සීනි
##ීන්ගේ
අමතක
මුහුණු
සූදානමින්
වරදී
ගොස්
##ට්ටුවක්
පැමිණීම
ඇෆ්ගනිස්ථානය
ගොඩබ
මිසයිලයක්
ගැටුමකින්
අමුතුම
සෙල්ල
පකිස්ථානයට
අපේක්ෂක
පෙරමුණට
දෝනි
සිංහයන්
ගැටුම්වලින්
පාර්ලිමේන්තුව
අරාබි
පෙරළී
නිකුත්
පෙම්වතා
ගාල්ල
පාවාද
හෝටල
ගුරුවර
සතියේ
මන්දිර
නියෝජිත
කොංග්ර
නිරුවතින්
පාරිභෝගික
ලියාපදිංච
තාවකාලික
100ක්
ආණ්ඩ
ඉරණ
උද
එෆ්
චිත්ර
ජේ
ඩය
තිල
පෙන
යවයි
යෝජනා
ලිප
ලැයි
ලිබ
වෙන්න
සම්ප
ළූණු
##මං
##මනා
##නු
##නින්
##ියි
##රුම
##කරමින්
##ළුෑණු
ගැටී
වැටුප
අප්රිකාවේ
බිළි
හේතු
ව්යා
මාලිංගගේ
රෝය
නිරුවත්
සීමාව
පුරවැ
පරදවා
නගරයේ
පහරදෙයි
මත්ප
මත්ද්රව්ය
ඉතිහාසය
ඉතිහාසයේ
##ැම්බරයේ
උඩුයට
සම්බන්ධයෙන්
ජයලලිතාගේ
හිඟයක්
වැරද
අර්ජුන
කාබුල්
විවේක
ඉන්දියානුවන්
සොයන්න
වියට්නාම
කුරුඳු
සිහිනය
ජාවාර
බැංගලෝර්
අස්වැන්න
අක්
අලි
ඇත්ත
උසේ
ටෙනිස්
තමන්
ධවල
බෙල්
භට
රයි
වල
ශුර
සබ්
හඬ
##ෙක
##යාන
##ිණ
##ිත්
##හින්
##ාස්
##මැර
##පට
##තැන්
##ියු
ප්රව
කොල්ල
කොවිඩ්
සමූ
මැඩ
ජනවාර
##වාස
##තාවක
බලධාර
බලාගාර
පැසි
නික්ම
පුළු
සිරියාව
ස්මිත්
අභිබ
පිළිතුරු
පරාජයට
##වැල්ල
කාන්තාවකට
දරුවෙකු
2018
ව්යාපෘත
ලක්ෂයක්
මැතිවරණයෙන්
දඩයක්
පහරදුන්
කමිටුවක්
අඟවයි
කළඹමින්
සුදුසු
මෙක්සිකෝවේ
අමානුෂිකව
අධිවේගී
ඔස්ට්රේල
සන්නද්ධ
යාත්රාවක්
නොහැකි
ගෝලීය
පෞද
නිව්යෝක්
උඩුයටිකුරු
උසේන්
සබ්මැර
##හින්ග
90
IM
ඇප
ඇරය
කෞ
කෙන්
චණ්ඩ
තිර
නුවන්
පමණ
බු
බන්ධ
මයි
යෙන්
වහන්සේ
##හපත්
##ගෙ
##ේත්ර
##කයි
##කොට
##දෙස්
##දාස
##තල
##වකාශ
##ණක
##ඳුර
##ාවකාශ
##ස්ලි
තරුව
කොළ
ඉන්දියන්ස්
අවිනි
##යාගේ
##සියා
##න්නැයි
සිද්ධ
පැහැ
##තාපල්
##සිං
අමරික
දෙකකින්
බ්රිතාන්යය
උපදෙස්
පුද්ගලයින්
පුද්ගලයෙකු
කාන්තාවන්ට
2019
තැනට
##වන්නා
වෙන්දේසියේ
අභ්යවකාශ
කුණාටුවෙන්
ගිවිසුමකට
යැවීමට
ලිංගිකව
මැලේසියාවේ
ගණනක්
පිළිබඳව
නවතයි
ගිලිහ
තිබූ
සංගමයෙන්
නිවේදනයක්
ක්ෂේත්ර
අධිපති
විනිසුර
තමිල්නාඩුවේ
ධාවන
විලියම්
සෙල්ෆි
තුන්දෙනෙකු
චැම්පියන්ස්
ඉරණම
පුළුල්
පෞද්ගල
IMF
අවිනිශ්ච
48
අක්ර
ඇඳ
උග්ර
එලියට
ඩිව
තලේ
නරේ
පර්
යේ
ළු
##යම
##ිශ
##ගාම
##ලො
##ැම
##ැත්ත
##ධානයේ
##භාව
##ශක
##ියෙක්
##ක්ස්
##ස්ගේ
##ස්කම්
##ාරය
වෙබ්
ප්රක
ප්රිම
අවාසනාව
අවතැන්
##ල්ලෙන්
##තුන්
ජනිත්
##ාතෘ
පළාත්
වීසා
සුන
සුඩ
රැස
ගැටේ
ස්ක
විශ්ව
දික්
සටහන
අභාව
##මාණය
ත්රි
රටම
එකම
අයෙක්
අයුරු
වරම්
මණ්ඩලයට
පුද්ගලයන්
මැතිව්ස්ට
නගරය
රැකගත්
අධිකරණය
ප්රංශය
ගැටුමට
ජපානයෙන්
අවදානම
සංවර්ධනයට
අභ්යාවකාශ
බේරා
දිල්ලියේ
උඩපන්දුව
තුර්කිය
සිසුන්
සිවිල්
කමිටු
ව්යාපාරික
තමිල්නාඩු
මහබැංකුව
ක්රියාත්මක
ක්රමයක්
370
සත්කාර
තොටුපළ
කැළඹූ
නොමැතිව
ඇවිත්
ප්රමිත
ශ්රේෂ්ඨාධිකරණ
සිල්වා
කිසිව
##හින්ග්යා
බන්ධනාගාර
පෞද්ගලික
අවිනිශ්චිත
තලේබාන්
ළුෑණු
44
අට
කිංග
කපා
ගෞ
ගැබ
ජූ
දස්කම්
නාසා
පිරි
පෙරේ
බුක්
මාන
මරා
යවන්නා
වදී
වෝන
වැනි
ශීත
සෙල
හඳු
##යාර්
##ාල්
##ගන්
##සල
##සාද
##කල
##මත
##තියට
##ෝප
##ණයෙන්
##ෂි
##ජක
##ඟු
##ත්න
##ිටි
අවප්ර
##ෙරප
මැණ
##රාම්
බලන්න
##වරයෙක්
මුස්ලි
සුළ
පුංචි
රැගත්
ගැටුමක්
සීකා
රථය
ඝාතනයට
නැව්
සූදානමක්
අඩුවේ
පුහුණුකර
සාකච්ඡාවක්
තුල
ගැල්
ගැලීම්
පාලන
වෙළදපළ
ආසන්න
මෙටි
ලාහ
අර්තාපල්
සැකකරු
##තිහාසික
මිනිස්
සංවිධානයට
අපේක්ෂාවෙන්
ජයලලිතා
ක්රියාකාර
නිකු
සිදුකළ
නායකත්වයෙන්
ක්රීඩිකාවන්
දඹුල්ලේ
සමුදෙයි
දේශසීමාවේ
සෞදියේ
සුවිශ
මොහොමඩ්
සන්රයි
කෘෂිකර්ම
අකිල
රසාය
ඩිවිල
ප්රිමියර්
දික්වැල්ල
වෝනර්
හඳුනා
මුස්ලිම්
මෙටි්ර
5ක්
අඛ
උස
එම
ඓතිහාසික
ගෘ
ගවේ
ඩෙ
දව
දුර්
නා
මෝද
මිරිස්
යතුර
රෑ
සත්ව
හඳ
ළමු
##යෝ
##යුර
##ගුව
##ටෝ
##්ස්
##මාතෘ
##දුරු
##තන්
##ළිකරුවන්
##බෑ
##2ක්
##ඵල
##ානයට
ප්රේම
##ංගත
විෂ
විසි
##ෙනුත්
##නයකට
සමර
ඇමරිකානුවන්
##න්නට
ක්ලින්
##මුඛ
අනියම්
මහමැති
සිහ
පැරණි
වසංගත
අග්රාම
වීර
ජනපතිවරණ
වෙනස
සැළ
##ප්පු
##වේද
දැමේ
නැග
නැගෙන
හමුදාවට
කම්පා
පොදුර
සොයයි
වෙළඳපොළේ
හෙළා
සංවිධානයේ
නොවේ
දැරියන්
දෙදෙනෙකුට
උත්සා
මිනිස
ධුරයෙන්
සුරංග
කැඳවූ
වෛරස්
ලොකුළුෑණු
ආදායමක්
දර්ශකය
පළමුවෙන්
පැරදුමෙන්
මාළු
ඇදවැට
හදිසියේම
දෙදෙනෙක්
විද්යාල
සිව්වන
වැස්සෙන්
කාශ්මීරයේ
නිර්මාතෘ
කැලිෆෝනියාවේ
වයස්
දිගු
වේගවත්ම
විශ්වාස
මත්පැන්
සබ්මැරී
සුනඛ
දුර්වල
මෝදිට
අග්රාමාත්ය
නැගෙනහිර
05
39
38
75
T20
අතුරු
ඇස
ඇත
ඉස
උපු
එළි
ගව
චිලී
තෙරේ
දම
නං
නත්ත
පොළ
බඩ
බෑ
මන්ත
ලිය
සල
##ෙම
##ෙලා
##සාන්
##දයි
##පුර
##ඩර්
##විල
##බර
##භියෝග
##ශාල
##3ක්
##ක්ත
වෙතින්
##ිසි
##ල්ලි
මැයි
ජනමත
##වාහන
##ස්ටික්
වැඩක්
##ීයෝ
කියූ
කිරීමක්
අගෝස්
සුනාම
කැද
එංගලන්තයේ
ඉල්ලූ
පෙරහ
සූර්
ප්රතිඵල
පොලිස
##යෙකුගේ
ඝාතන
නැවක්
මෙහෙමයි
පුද්ගලයෙක්
පිළිබද
කාලයක්
එල්ලවූ
2017
ක්රීඩකයන්ට
සෙබ
රොහින්ග්යා
සැකයක්
##ගැනේ
මධ්යම
##කයන්ට
තර්ජනයක්
ස්ථානය
වීඩියෝවක්
කැරළිකරුවන්
කඳුළු
ඇමෙරිකානු
යාත්රා
දෙදෙනා
පැවැත්වෙන
කළඹයි
සහතිකයක්
පුපුරයි
තොගයක්
යවන්නන්
ශ්රම
මලයාසියානු
මහමඟ
හිරු
සටන්කාමීන්
පිරිමි
යාපනයේ
කිරුළ
ඇන්ජලෝ
ලැයිස්
පුරවැසි
බෙල්ජ
පැසිෆ
නරේන්ද්ර
කිසිවෙකු
ගෞරව
පෙරේරා
මැණික්
මෙටි්රක්
උපුල්
තෙරේසා
මන්ත්රී
2ක්
කාම
චාර
ට්ව
ත්ය
දූප
දොර
දහස්
නට
පොර
බඳ
බර්
මාව
මතුව
රේ
වාස
ශෝක
ෂී
හිස්
##යත්
##රට
##ගොස්
##ේෂ්
##නියට
##පහ
##බා
##ෆ්රි
##ක්සිං
##ස්ට්
##ුවෙයි
##ෙන්ඩු
##න්දේ
##ින්ට
විධ
කරලා
##ිටර්
##රුන්
##නාත්මක
##ුපැ
කොරියා
තරගයක්
මහල්
මැදප
බලව
2020
කටාර්
සංචාරයකට
##මාණ
කම්පන
සොහො
එකේ
දෙකකට
ක්රමය
නිවස
ඉලක්කය
උපදේශ
වීඩීයෝ
රජයෙන්
මණ්ඩලයෙන්
අහිමිවෙයි
කඩුල්ල
ඉරානයෙන්
ලාභ
ගින්නෙන්
පූනේ
ආයතනයෙන්
චන්දිමාල්ට
පැවති
පකිස්ථානය
බොකෝ
බොක්සිං
පහරදීමට
ගෙදර
දෝෂා
දැමීමට
අඩුවීමක්
උළෙලට
කැමැත්ත
අංශයේ
පෙම්වතිය
නායකත්වයට
නෞකාවක්
ඊජිප්තුවේ
රාත්රී
සෝමාල
##ිවුඩ
පන්ජාබ්
ඉරියව්
ලියාපදිංචිය
තාවකාලිකව
කෙන්ය
අවාසනාවන්ත
කිංග්ස්
ගැල්මෙන්
සුවිශේෂ
රසායනික
යතුරුපැ
හඳුන්
පැසිෆික්
ට්විටර්
ත්යාග
දෝෂාභියෝග
800
අංක
අත්ව
ඉක්
ඉන්න
ජාල
ටයි
දළ
දක්ෂ
නේ
පත
වො
වීමේ
සුන්
##ගාට
##කගේ
##දුම්
##ප්රා
##ෝෂ
##වහන්සේ
##ළුවක්
##ජින
##ෆී
##ියන්ට
##ත්තර
##ිකළ
##තින
ප්රමුඛ
ප්රවාහන
විට
##ිමත්
සහාය
සහනා
සහෝද
සමාව
##යාස
##න්නේ
වෙළද
අපහ
කළමනා
මැදි
එක්ක
වෙළඳුන්
පිටුව
##ක්කා
අයිස්
නොබ
ඉල්ලීම
දැන්
ජීව
වේද
ඉදිකිර
##ක්රම
ත්රස්තවාද
ඉනිමක්
##ට්ටුව
හිමියන්
විරෝධී
පහරින්
ඉන්දුනීසියාව
වෙනස්කම්
නිලවරණය
ගිවිසුම්
තැබීමක්
ගොවි
පාලනය
ව්යාපෘති
ආයතනයේ
දිවයිනේ
කෝලිගේ
හරී
දර්ශන
ඔබාමාගේ
ඉදිරිපිට
යුරෝපයට
වෙළදපොළේ
විනාශයි
කණ්ඩායම්වලට
උත්සන්න
ආරම්භක
කාලගුණයෙන්
අඟහ
සුළඟින්
තාක්ෂණ
වැළැක්
ඊජිප්තු
හෙලිකොප්ට
කම්හල
විනිසුරු
පැතිරේ
නොදැව
වෙනිසියුලාවේ
පාප්වහන්සේ
ඇලෙ
පිටුපසින්
කවුන්
වන්දි
##ල්කාර්
පහසුකම්
ඩේවිඩ්
ගිණුම්
ප්රභේදයක්
අදියර
කොංග්රස්
චිත්රපට
සමූහ
අභාවප්රා
සන්රයිසස්
ළමුන්
##ෙන්ඩුල්කාර්
සහනාධාර
අභාවප්රාප්ත
41
4ක්
උද්
එකට
ඒක
කෑ
ගෝ
ජින්
ණයක්
තෙ
තෙක්
තෑග
දමා
පල්ල
බොල
මිළ
වීම
සද
සච
සජී
හසන්
##ිෂ
##හරාම්
##ුධ
##ගහ
##ගන
##සියාවට
##කය
##මී
##වට
##විය
##බෝධ
##ජා
##ස්ම
##ම්මා
##ිව්
වැදී
##ල්ලා
සමයේ
සමස්ත
පාපැ
දෙස
නවදි
ජයගත්
මහලේ
ජනප්ර
එක්වන
විස්සට
සුකී
පුට
පරිමා
##මින්ටන්
අලු
වැටලීම්
සමඟින්
දැක්
අප්රිකානුවන්
##ස්ත්රෝ
අනතුරක්
අනතුරෙන්
රථයේ
පොලිසිය
සියදිව
##පත්තු
පිපිරීමෙන්
හිමික
රෝහ
තරුණියන්
සංචාරකයන්
ලැබෙන
ඇෆ්ගනිස්ථානයට
150
කලක්
වටලයි
වෙන්දේසි
සමාගමේ
ජලය
වසරේදී
##ෂණයට
ආයතන
පදක්කම
##ගැනීම
අවස්ථා
බලාපොරොත්තුවෙන්
අරන්
පරදවයි
තීරණාත්මකයි
නේපාලය
තුර්කියට
ගිවිසුමට
ගුවනට
යුද්ධය
යැවූ
ඉතාලි
බීජ
අමාත්යවරයා
තුනක්
පෙන්වයි
තාක්ෂ
පිතිකරුවෙකු
හෝටල්
රහසක්
අයවැය
රිදී
කැනඩාවේ
දැනුම්ද
ගම්මිරිස්
යුක්රේන
වරායේ
කිරීම්වල
ඩයලො
බිළිඳ
නික්මෙයි
ස්කොට්
ලාහෝර්
එමීර්
සූර්ය
අපහසු
පිටුවහල්
කවුන්සිල
සියදිවි
ඩයලොග්
3ක
43
5ක
අතින්
ආප
උත්ත
එවර
කන
කුර
ගබ
ජෙ
ඩ්ර
තැ
තුර
දණ
ධර්ම
නළ
නැර
පන්න
බ්ල
මුණ
මඩු
මලල
යෙද
ලන්
ලෙන
ශිල්
සාද
හස
##ග්ඩ
##ේක
##ලීමට
##කල්
##කයා
##දානය
##ැල්
##ෝගී
##වින්
##වෙන
##at
##ශාන්
##ෂධ
##4ක්
##ියගේ
##ිලා
තරඟාවලි
සමාන
මිලිය
##ෙරදිග
##ලියා
මහනුවර
202
##කරුවෙකු
පුත්ර
##නයේදී
වසරක
තීන්දුව
බෝට්ටු
බෝට්ටුවක්
##ුවේදී
නැගී
අධ්ය
බිත්තර
අගමැතිනිය
ක්රියාව
##ුනේ
ප්රහාරයකට
ජීවිතය
වෙළඳපොලට
ඉනිමට
සමුගත්
ව්යවස
ශූරතා
නායකයාට
නායකයාගේ
නායකයාගෙන්
සංචාරකයින්ගේ
10ක්
විදේශීය
##ගතම
කලකට
අධිකාර
මෙසී
සේවය
අවදානමක
පකිස්ත
ආනයනයට
ආනයනික
ප්රාන්තයට
මැතිවරණයේ
##ංචියක්
ආයතනයට
වර්ග
##ප්පෝ
ධුරය
කුණාටුවක්
ජයග්රහණයට
පාර්ලිමේන්තුවට
හැරී
අධිකරණයෙන්
මහබැංකු
ජෝන්
පිත්තෙන්
පත්වෙයි
නියෝගයක්
කේරළ
බංගලාදේශය
ගොඩනැගිල්ලක්
ප්රශ්න
පණිවුඩ
කරුණාර
රොකට්
මර්ද
කණගාට
ව්යාපෘතියක්
සුදුසුකම්
ක්රියාකාරකම්
වයස්ගතම
මැදපෙරදිග
බොකෝහරාම්
නොබෙල්
අඟහරු
උද්ඝ
ජනප්රිය
42
6ක්
අයට
අෆ්රි
ඖෂධ
කෙන
කුවේ
කස්ත්රෝ
ගගන
චන්ඩ
ටී
ටියු
ඩී
ඩුබ
තෙන්ඩුල්කාර්
ද්
ද්රව්ය
නෝ
පිවිස
බාල
මෙල්
රූප
ලිහ
වත්
සර්
සුදු
හොර
ෆ්ල
##යෝජ
##ිඩ
##ගැ
##කරණය
##ඩුව
##ෝන්
##වීම්
##බන
##ශයෙන්
##ජර්
##ජරා
##7ක්
##ියස්
##ත්ය
##ුවාට
තරු
කොන්ත්ර
අවබෝධ
##ිමට
නවාස්
අප්රේ
තරගාවලි
ජනතා
කණ්ඩායමෙන්
##සුණු
හමුවට
පැප
පැතුම්
##තරය
##ෙහි
##වරයි
##ෂ්ක
වසයි
අත්ය
වෙනත්
සැණක
සිරවූ
ක්රීඩකයින්ට
වසරකට
දිල්
අනතුරේ
කම්පනය
සංගමය
එකක්
ආයුධ
ත්රස්තයන්
හදවත්
මාලිංගගෙන්
පැමිණේ
පෙට්ට
පුද්ගලයාට
හැඩ
ලක්මාල්
##කරුවන්ගේ
##න්ඩර්
කොළඹට
2015
අතුරුදන්වූ
ඔබාමාගෙන්
##වන්නැයි
මැතිවරණයක්
බලපත්ර
සංවර්ධනය
ICCයෙන්
හරස්
මධ්යධ
##ජිණ
නගරයට
අවුරුද්
නිලධාරීන්
සැලැස්
කිහිපයකට
කෘෂි
යුද්ධයක්
අර්බුදයක
අධිකරණයට
විකිණ
මුහුණද
කාර්මික
ගාස්
සාග්
පසුව
තනතුරට
කැලිෆෝනියා
සමුළුවක්
කපයි
අයර්ලන්තය
දඩුවම
රාත්ර
මාලදිවයිනේ
ගුජරා
පුහුණුවීම්
අක්කර
කොළො
පිරිපහ
මානව
ගෘහ
සොහොයුර
සෝමාලියාවේ
මැදිහ
වැළැක්වීමට
සජීවී
පාපැදි
මහලේකම්
අලුතින්
එවරස්ට්
නැරඹ
ශිල්ප
ව්යවසායක
කොන්ත්රාත්
අවබෝධතා
අප්රේල්
අසේ
ආන්ද
ඇණ
ඉස්
එයාර්
ඔස
ගණු
ගන්නා
ජොන්
ටො
ඩිල
තෝ
පේ
පවත්
බින්
මස්
මිහ
මිතුර
රූ
වශයෙන්
සොර
හත්
##ිද්
##ොඩ
##හු
##ලිට
##නායක
##වුන්
##වුම්
##ංස
##le
##8ක්
##ුවලට
##ල්මන්
ප්රා
ප්රදී
##ින්ම
කොන්දේ
##ාලූ
වැසි
වැසික
සහනයක්
සහභාග
##නාමි
##රණී
##ුවන්න
##ාර්ග
අපූරු
අනිද්
මහජන
සිඩ්
කොටි
වැඩිව
##සුල්
20ක්
##වරට
සුනාමි
පහදයි
##ාජ්ය
නායකයින්
නොම
බැලූ
##ඩ්ස්
ඉහළම
දිවියෙන්
පොදු
සංගම්
බ්රිතාන්යයට
බ්රිතාන්යයෙන්
එළඹ
රජයට
කුල
සටනක
පිරිව
වෙළඳපොළට
සංචාරකයින්
බැංකුවේ
##ාගාරය
ගැටුමේ
දුම්රියක්
##වාදයක්
ක්රීඩකයන්ගේ
රොබෝ
අතහැර
පිලිපීනයට
##වරයාගේ
කුණාටු
ගෙනා
පුටින්ට
නිලධාරියෙකු
පාර්ලිමේන්තුවේ
බිරිඳට
පනතට
මැලේසියාව
උඩුගුව
මහේලගෙන්
මහබැංකුවෙන්
##පිටි
අන්තර්ජාලයට
සරණාගතයන්
සුදාන
සංගමයේ
ස්ටී
පිතිකරුවා
ගුරුසිංහ
අරාබියේ
කඩාවැටී
පද්ධතිය
මව්බ
##ාගැනීමට
වෙනිසියුලානු
##්රෝන්
දඩුවම්
මනාල
ගහපු
සාර්ථකව
ගුවන්තොටුපල
##ාබේ
ඉඩම්
දෙවැනි
ආරාධනා
සෙබලූන්
සැප්තැම්බර්
තත්ත්වයට
සරස
ලිපියක්
වැටුප්
බලධාරීන්
තිරිමා
##ගෙදර
සෙලවෙයි
වීරයා
සබ්මැරීනයක්
නත්තල්
සෙබළ
හෙලිකොප්ටරයක්
ඇලෙප්පෝ
පරිමාණ
හිමිකම්
දැනුම්දීමක්
ස්කොට්ලන්ත
ඩුබායි
ද්වි
සැණකෙළ
මධ්යධරණී
කොළොම්බ
පිරිපහද
ආන්දෝල
ප්රදීප්
අනිද්දා
04
57
අනා
ඇපල්
උද්ය
ඔක්ත
ඛනි
ජැම
ඩ්රෝන්
දීම
දහස
නර
පවු
බය
මස
මොර
යථා
ලකුණ
වහ
වු
වඩා
සව
ළං
ළමා
##යන
##රිම
##ාක්
##ගාබේ
##ේජක
##ලය
##කීය
##කමක්
##මෝ
##මති
##මන්ත
##පාත
##තෙක්
##ෝෂණ
##විට
##ළුවන්
##ළියට
##බුන්
##al
##0ක
##චනය
##er
##ඇමති
##ාවි
##ිකාවක්
##ල්ඩෝ
වෙලා
##ියාවෙන්
ප්රජ
##ට්ස්
විනිම
කරගත්
ඇමත
##නාල්ඩෝ
##ෙකුට
##සියට
ක්රීඩාවේ
තරගයේදී
පිහි
මහඇමති
##ාමාර්ග
ලෝකයම
කාසිය
එක්ව
##තාවට
මුල
මුගාබේ
නිල්
නිපද
වීථ
පුතු
සිරද
රැජින
තීන්දුවක්
නොකළ
නොකරන
බැග්ඩ
ස්මාර්
විශ්රාම
අප්රිකාවෙන්
බිග්
දිවා
සංග්රාම
ප්රතිප
##ලාභ
රාජකීය
දෙකක
නැවතු
උපකරණ
උපරිම
ලෙබන
පන්දුවෙන්
සමුගැනීමට
පැමිණෙයි
තරුණයෙක්
සාකච්ඡාවට
ජාතිකයන්
හැක
චන්ද්ර
ලක්ම
නිරෝධ
##මේන්ත
රාජ්යයට
රැකීමට
කාලය
වටයේ
19න්
පැරා
දරුවෙක්
යුග
සීමාවේ
මාසයේදී
සේවක
හමුවූ
රොනාල්ඩෝ
මැරතන්
##බර්ග්
මිනී
බොඳ
##හලෝක
දිල්ලිය
මියන්මාරය
දෙනෙක්
යුරෝපය
බිරිඳගේ
යැවීම
ග්රහලෝක
මැලේසියානු
කෙටු
රැස්වෙයි
ධනු
පක්ෂය
සරණාගතයින්
ක්රමවේද
කාර්තුවේ
සාගරයේ
##ොක්ස්
මාලදිවයින්
මලයාසියාවේ
තිදෙනෙකු
ළඟදීම
දේශසීමා
මාරුතය
නායයා
වයස
##රීෆ්
කෙරෙන
හුවමාරුව
ආබාධයකට
දැල්පන්දු
යුක්රේ
ගිනික
සංකීර්ණ
නාමය
කොමිස
අනාවැක
සංශෝධනය
කඩිනම්
ආණ්ඩු
පෙනෙන
භටයන්
ජනවාරියේ
අභිබවා
ඇරයුම්
##ඳුරට
ක්ෂේත්රයේ
අක්රිය
අවිනිශ්චිතයි
පුහුණුකරුවෙක්
ක්ලින්ට
මහමැතිවරණ
උත්සාහ
බෙල්ජිය
වොෂ
උත්තේජක
සිඩ්නි
ඔක්තෝ
ඛනිජ
ජැමෙයි
බැග්ඩෑ
ස්මාර්ට්
කෙටුම්ප
03
2යි
3යි
65
7ක්
අණ
අඳ
අඹ
අකුණු
ඇල්
උමං
උරුම
ඍජු
එල
ඕන
කන්
කප්
කඳුරට
ගාසා
ජො
ටෝක
දශක
නුස
පනී
බද
බයි
මතට
රෙ
රක්ෂණ
ලූ
සන
සල්ම
හෆී
##ාශ
##ාදී
##ලීම
##ලකට
##9ක
##වශ්ය
##ෘතිය
##ඹුරු
##ඉරි
##TE
##pp
##ස්වයි
##ුවල
##ිකාර
##ිකරණය
##ම්ස්
වෙල
##ිලේ
##ුදුසු
##ාලයේ
අවුන්
අවදානය
වැලි
පාන්
දෙගුණ
##ාගන්න
අපයෝජ
මහර
මහවැ
ලෝකෙම
##ස්සේ
වැඩකරු
ට්රක්
සුඛ
##්ගින
ජනපතිගේ
පරිප
##විද්ය
වසරක්
නොදු
ගැටළුවක්
##මින්ද
සිටියදී
අභිර
විරාත්
අමතයි
රථයක
තරඟාවලියෙන්
තරගාවලියක්
පිළේ
##ේෂණ
බෝම්බයක්
අයහපත්
හිමිවෙයි
පැමිණීමේ
අසළ
තරුණයා
පෙට්ර
පෙබර
බිලිය
චන්දික
හිංස
රැකීම
ආදරය
11ක්
මොසුල්
12ක්
දියණ
##ස්ථානය
14ක්
කුමාර
කුමාර්
කුමන්ත්ර
මූල
අතිර
අතපත්තු
භාරගනී
අත්හදාබැ
ඉතිහාසගත
කර්මාන්තයට
දෝෂ
යුද්ධයේ
අර්බුදයක්
ඊශ්රායලයට
පූර්ණ
පැරදූ
නෞකා
විකුණ
ඇමෙරිකාවේ
ජර්මනිය
ඉදිරියේදී
හතරේ
හතරවන
වර්ෂාව
ඇගය
ජෝර්ජ
කිරිපිටි
සුළඟක්
නෞකාව
වැළඳ
පස්දෙනෙකු
තනතුරක්
අනුපාතික
අභ්යාසයක
අර්ජුණ
##ාගැනීමේ
ගුණති
ඔස්ට්රේලියා
ප්රසිද්ධියේ
ලෝකයේම
මොහොමඞ්
සෝමාලි
ස්පාඤ්ඤයේ
උතුරේ
ප්රවර්ධන
බැලීමක
ආගමික
හානිකර
වියදම
වියදම්
පෘථිවියට
අවධානයෙන්
අමාත්යාංශය
කඩිනමින්
ශාන්තුවර
ප්රදර්ශනය
දෙපාර්
සෙල්ලම
ලිබියාවේ
රෝයල්
මයිකල්
පැහැද
##භාවය
විශ්වවිද්ය
අවප්රමාණ
නිකුතුවක්
ඇතැයි
බඩඉරි
##ශාලාවක
කැදවයි
චාරිකාව
පොරො
වාසි
උපදේශක
සුන්බුන්
සහෝදර
ජින්ප
තෑග්ග
තාක්ෂණය
ඩ්රෝන
අධ්යාප
කරුණාරත්න
නෝට්ටු
ලිහිල්
අවුරුද්ද
ගණුදෙන
කොන්දේසි
පවුලේ
වීථි
ටෝකියෝ
සල්මාන්
පෙට්රල්
පෙබරවාර
46
55
85
9ක්
අබ
ආන
ආක්රම
ඇන්ට
ඉඟ
උෂ්
උදුර
උසස්
කී
කත
දෑ
දිල
දීමට
නාග
පාන
බිය
බිමේ
භෝග
මල්
මාත
වීමට
ශර
ශෂික
සක
##ිණි
##රයේදී
##ාට්
##ගැන්
##සෙල්
##සුමක්
##ලර්
##කේ
##කඩ
##කයක්
##කේන්
##9ක්
##මාව
##දව
##දරු
##තී
##තමේන්ත
##වස්ථ
##බ්ල
##ජන්ට
##චනයක්
##IS
##න්වයි
##ුවූ
##ානාම
##යක්ෂ
##ර්ත
##ංකා
ප්රස
ප්රවී
ප්රේෂණ
##කුත්
වැය
##නාහිර
සංස්ථ
සංදර්ශ
##ම්පත්
නවක
##ාදයි
ක්රීඩාව
ක්රීඩාවට
වෙයිද
කළේ
මහානාම
##ස්සල්ලෙන්
වෙළඳස
වැඩිවෙයි
##ියේදී
##වරියක්
##කරයේ
##ියාගේ
නිහ
නික්
සුලෝ
පරතරය
සිරකරුවන්
ක්රීඩකයකු
##ප්තිය
බෝග
දිනයට
##ෝද්ය
කටාරය
පසුබ
අභිම
අභියා
විරාට්
සූත්ර
තහනමට
අමතර
තරඟාවලියේදී
##ණයකට
සියලූ
ක්රිය
##ත්තල
කුසලානයෙන්
ඉනිමේ
හදන
හිමිවූ
ව්යවස්ථ
පීඩා
අසල
තීරණයට
පුද්ගලයෙකුට
නිෂ්පාදනයේ
පිතිකරණ
##කාරි
ආර්ථිකයට
##වර්ධන
සොයාගැනේ
කරනවා
ගැහැ
අන්තවාදී
සමාගමෙන්
බස්නාහිර
ව්යාපෘතිය
ඕස්ට්රේලියාවෙන්
හමුවීමට
වේගය
කුමරිය
##ගැනීමේ
පිලිපීනය
බේකර
චෝදනාව
නේපාලයට
මාධ්යවේ
මාධ්යවේදී
කිඹ
තත්ත්වය
ඉදිරිපත්
කර්මාන්තය
දෙනා
යුද්ධයෙන්
පාර්ලිමේන්තු
ගොවීන්ගෙන්
අවිශ්
හැරේ
ඉතාලිය
විදුලිය
කැරිබ
ඡන්දය
තිබියදී
පැවැත්වීමට
##ස්කාර්
පෙන්වූ
අන්තර්ජාලය
ISIS
නිමයි
විද්යා
පුපුරා
බෙදා
සිංගප්පූරු
කාශ්මීරයට
වැරදි
ශ්රමික
පත්වූ
බහු
කන්දක්
අයවැයෙන්
අරාබිය
පිහිට
අධිවේග
යොමු
පද්ධතියක්
සමුළුවට
කැපී
සාර්ථකයි
##ච්චි
හුවමාරු
වැදගත්
ග්රීසියේ
විමර්ශ
ප්රවර්ධනයට
ප්රේක්ෂක
ත්රස්තවාදීන්
චන්ද්රිකා
ව්යාප්ත
රෝයල්ස්
ප්රවේශ
ප්රමිතියෙන්
ශ්රේෂ්ඨාධිකරණයෙන්
ඩිවිලියස්
ප්රේමදාස
මිනිසුන්
විද්යාලයට
පෙරහුරු
තෙවන
නවදිල්ල
පුත්රයා
ටියුනී
ගාස්තු
අසේල
පිරිවැට
සෙබළුන්
ද්විත්ව
ප්රතිපත්ත
නිරෝධාය
ධනුෂ්ක
අනාවැකියක්
නුසුදුසු
අතිරේක
දෙපාර්තමේන්ත
පැහැදිලි
ජින්පින්
උෂ්ණ
ශෂිකලා
සුලෝහිත
08
4යි
50ක්
MH
UP
ආපු
ආජන්ට
ඇත්
උව
කපු
කන්ට
කජු
ජු
ජලා
තත්වයක්
තෙරප
දුප
දයාස
නම
පට
පෝ
පුර්
පතයි
භයාන
රත්ර
ලද
ලෝ
ලොර
වුණ
ශා
ශරීෆ්
සිම
සකර්
හවා
##ෙට
##යං
##යාර
##සය
##සිව
##්නි
##දෙයි
##ැද
##ඩන්
##වෝ
##වීමෙන්
##un
##am
##ෂී
##DA
##4ක
##ල්යා
ප්රචාර
කොකේන්
විභාග
##ිවේද
##ිවාර්ය
කරගෙන
##ිස්ට
##ාදා
ක්රීඩාවෙන්
##කින්න
##මුණු
##ම්බෝජ
##ෙරී
අනිවාර්ය
මැකල
ජනගහ
##වනු
කාම්බෝජ
හෙල්ලූ
##ස්ටර්
බලාගෙන
පැළ
ඡායාරූපයක්
අග්නි
පුතා
පුළුවන්
ජනපතිනිය
##ළුම්
සැත්
කැඩ
ක්රීඩකයෙකු
ක්රීඩකයෙකුට
නායකයෙකු
තරඟයත්
එංගලන්තයෙන්
ගැටළු
වැටීමෙන්
පාකිස්ථානයෙන්
##ඩ්න්
දේහය
එරට
ඇරඹුම
දිනයේ
දිනේෂ්
කටුන
අනතුරුව
අනතුරකට
විරුද්ධ
පෙරලී
බිම්
හමුදාවේ
කම්පනයේ
ජපන්
සංගාගෙන්
රටට
වර්ධන
ක්රොස්
##ුනි
එළියක්
ඝාතනයේ
සේනා
උපන්ද
ඇමතිට
හිමිකර
කෝලිට
පීඩ
පැමිණෙන
සටනක්
##ාන්තික
##ිකයන්ගේ
නගී
ප්රබලයන්
නිලවරණ
රැකගන්න
නුවරදී
තොරයි
යුධ
ගැස
ගැල
පාලනයට
120
මෙතෙක්
සැකකරුවන්
සැකකරුවෙකු
මැතිවරණයට
මාර්තු
හරහා
සැමර
සැමරු
##හිරු
කුසල්ගේ
යාමට
නගරයක්
ශූරතාවලිය
නිලධාරින්
මියන්මාරයට
ගුවනින්
යටතට
ඊශ්රායලයෙන්
තායිලන්තය
යැවීමේ
බ්රසීලය
කෙළ
කමිටුවේ
මොහොතේ
අන්ති
නියමුවා
ප්රහාරකයා
කැනඩා
සංගමයට
පසුප
විරෝධතාවක්
කම්හල්
ක්ෂේ
ජනතාවට
පිහිටුව
යොම
කලාපයේ
මාරුතයක්
තායිවානයේ
කැපූ
##බෝලා
ගම්මාන
කාර්යාලය
කඳවුරකට
සම්මේලනය
වරායට
විරාමයක්
අරමුදල
සෙනෙට්
සැප්තැම්බරයේ
රෝහලක
ගොඩබස්වයි
රයිඩර්
ශුරතාව
ඔස්ට්රේලියාව
පමණක්
පමණයි
ප්රකෘති
සුඩානයේ
වැනිදා
අඛන්ඩ
අග්රාමාත්යවරයා
සුනාමියෙන්
ලැයිස්තුව
ත්යාගය
සදහා
සචින්
රෝහලේ
ජෙරු
තුරන්
කේරළයේ
පණිවුඩයක්
උද්ඝෝෂණ
අෆ්රිඩි
රාත්රියේ
නැරඹීමට
පේරු
සුදානම්
ආන්දෝලනාත්මක
ලක්මව
සංකීර්ණයක
ඔක්තෝම්බ
සනත්
මහරැ
නොදුටු
විශ්වවිද්යාල
බඩඉරිඟු
ආනන්ද
UPDA
උවදුර
දයාසිරි
හවායි
මැකලම්
UPDATE
30ක්
53
52
72
7යි
87
8ක්
අඩි
ආවරණ
ආශ්ර
ඇන
ඇසි
ඇවිල
උල්ක
ඔප
ඔස්ට
කර්
කල්ල
කණි
ගස්
ගාල
ගමක්
ජිව
ජෙට්
ඩි
තාන්ත
තැන්
තෝර
දිරි
දොස්
නිමා
නෙද
නෙරප
ප්රී
පෙන්න
පක්ෂයට
බෙන්
මඩ
මිට
මසුන්
යන්ත්ර
යෑමක්
යහපත්
රහස
ලහිරු
වෘ
වරු
වොට්
ශාර
ශිෂ
සඟ
සින
ෆො
##ින්ද
##රියා
##ාම්
##ාස්ටික්
##ගා
##ගල්
##ගස්ක
##ගන්නා
##සර
##සර්ලන්ත
##්යක්ෂ
##ලිත
##දූ
##පෝ
##පණ
##පොළ
##පේක්ෂ
##තැන
##ැහැ
##වැව
##ෘතිමත්
##භෝගී
##oo
##ජන්
##7ක
##ාවෝ
##ුවකට
##ිකර්
##ාරා
##ුරුව
##ර්බ
ප්රතික
##ට්සර්ලන්ත
විග
විනය
##ුදෙන
##ිවලින්
කරළියට
##රුණු
අවන්
##ෙකුගේ
අනපේක්ෂ
කාට
එක්වේ
වෙළඳාම
බලාස
බලකා
##ත්වයෙන්
##ත්වීමක්
ගුවන්යාන
##වරිය
##ියාට
මියගොස්
අත්පත්
අගයට
අගවයි
සුභ
පහලට
##ප්ස්
##විට්සර්ලන්ත
##ද්වී
බැඩ්
ගැටළුව
ස්විට්සර්ලන්ත
අලී
කාන්තාවට
දිනකට
ඉන්දියාවේදී
##ායික
වාණි
අධ්යක්ෂ
සූරිය
අගමැතිගේ
සංගීත
රටක්
තරගාවලියෙන්
##ුනත්
නිවා
සාක්ෂ
ආරක්ෂණ
පන්දුවක්
ඇමතිගෙන්
හිමිකරු
කුක්
රෝහි
ලෙසට
සාකච්ඡාවක
අහිමිවන
ගිනිගෙන
හිදී
කාලසටහන
##ාගාරයට
පැරී
විසද
පරීක්ෂා
පරීක්ෂාවට
මැතිව්ස්ගේ
සේවකයන්
##දෙනෙක්
ලක්ෂය
සෙවීමට
දුක
ගණිකා
ලොක්ක
මුහුදේදී
මූල්යා
චන්දිමාල්ගේ
කෝලිගෙන්
භාරයට
16ක්
ඇතුළ
ඇතුළුව
##වරුන්ට
##කීබ්
##බර්න්
පියවරක්
ජයග්රාහ
විරෝධතාකරුවන්
බාධාවක්
ගිවිසුමෙන්
ඇඟළුම්
මවගේ
ප්රථමයෙන්
දෝණි
දෙනෝද
කිහිපයක
21ක්
අභියෝගයට
නයිට්
අගනුවරට
ආහාරයට
ආසාදිතයින්
මුල්වරට
සැරසෙන
දුරකථනය
24ක්
විකාශ
ක්රීඩාංගණ
සම්මත
යෝජනාව
හිඟය
කන්නයට
දසුන්
එකඟතාවක්
චැලෙන්
ලබාදුන්
කිලෝව
අල්කයි
නිළවරණය
අරාබියට
යොද
නායය
වතුරෙන්
එන්නත
බංගලාදේශයට
තායිවාන
ස්වයං
කැමරාවක
සන්නිවේද
විසඳුමක්
භාවිතය
නොහැක
ප්ලාස්ටික්
වැදුණු
සිංගප්පූරුව
ශ්රේෂ්ඨාධිකරණය
ආරාධනයක්
පාසලක
සැපයුම්
හැසිරුණු
ප්රේක්ෂකයන්
බිලිඳ
ප්රචන්ඩ
විචාරණයක්
සෙල්ලම්
මන්දිරය
තිලංග
##ෙකැ
ඔස්ට්රේලියාවට
අමරිකා
විනිසුරුවන්
පර්යේ
යේමන
ප්රකෘතිමත්
රැසකට
සත්කාරක
ජූලි
##සාදය
##ෝපභෝගී
සුළං
උසම
එළිද
නංවයි
අගෝස්තුවේ
මහමඟදී
බඳුන
විධායක
බලවතා
සුවිශේෂී
හඳුන්වාද
අත්වූ
ත්රස්තවාදයට
කම්හලක
පල්ලෙකැ
කෙනෙක්
ගගනගාම
මෙල්බර්න්
වත්කම්
ෆ්ලොර
කම්පනයකින්
නොමිලේ
උඩුගුවනට
විනිමය
ඇමතුමක්
සංග්රාමය
ක්ලින්ටන්ට
ජැමෙයික
කප්පාද
අවුන්සාන්
සුඛෝපභෝගී
පරිපාල
ආක්රමණය
ඉඟියක්
ශරීර
ක්රියාමාර්ග
බේකරි
කිඹුල
කපුගෙදර
කන්ටේන
ජුලි
ජලාශ
භයානක
සකර්බර්ග්
කණිෂ්ඨ
තාන්ත්රික
නෙදර්ලන්ත
වොට්සන්
ශිෂ්ය
අනපේක්ෂිත
බැඩ්මින්ටන්
වාණිජ
රෝහිත්
මූල්යාධාර
අල්කයිඩා
500ක්
6යි
74
91
ආකාර
ආසියා
ඇර
ඇල්ලූ
ඇන්ඩර්
ඉන්
ඉපය
උග
උණ
උල්
උස්ස
ඔස්සේ
ඕම
කථ
කුණු
ගසා
ජ්ය
ජුනි
තණ
තිස්
තල්ම
දත්ත
ධම්ම
නොල
නෝර්
පන්
පානය
බැට
බුල
මන්න
මිරි
මොළ
යූ
යුත්
රාම
රනින්
වොල
ශාල
ශර්මා
ශකීබ්
සිත
සුස
සක්ර
ෆෝ
##ෙස
##ෙෂ්ඨ
##ෙද්දී
##ිං
##ාළ
##ගොඩ
##සාර
##සර්
##කන්
##කිය
##කාය
##කම්ප
##මකින්
##පි
##පාර
##වාන්
##වුණු
##an
##භංග
##ඹා
##ශව
##ෂාර
##ජය
##6ක්
##චන
##න්ගෙන්
##්රුවන්
##්රැව
##ත්ස
##ෙන්ම
##ෙන්ති
ප්රිය
##ින්ටන්
##ණුම්
##ිතාව
කරපු
කරගනී
තරඟවලට
##නාට
දෙලක්ෂ
අදහස්
අදාළ
මිලෙහි
##ාග්
ජයත්
අනුර
මහත්
සිප
මැන්
මැච්
##ාමා
##ාමාන්ය
ජනර
ජනනේ
ලෝකයක්
ලෝකයට
එක්ලක්ෂ
##වාසී
පළාත
වැඩසට
බලකොට
බලකාය
##වලා
##වලදී
පැද
පැන්න
පිටි
205
##ානයක
විස්සෙන්
ජනපතිවරණය
පරාදයි
සැබෑ
සිරවී
##ප්ට
##වින්ද
##ියෝප
නායකයෙක්
තීරයට
වනවිට
බ්රසල්
ස්ප
ස්වී
වැටෙන
දිනා
##සිට්
නවසීලන්තයෙන්
ආරංචියක්
##යකදී
##බ්බ
ප්රතිඥ
ලබාගත්
ඉවත්වීමට
තරඟාවලියක්
එකින
එකතු
තරගාවලියේදී
##නිමින්
ජීවිතාන්ත
නිවසට
සංචිතයෙන්
##රාජ්
උපදෙ
ආරක්ෂාවක්
මුදල
අත්අඩංගුවේ
හොල්ල
හිමියන්ට
ව්යාජ
පීටර්
අසාර්ථක
අසාමාන්ය
කුඹුරු
පුහුණුකරුවන්
##කාරිය
ඉන්දුනීසියාවට
##ිබෝල්
තීරණයක
කලින්
දීප
වටින
සොයාගත්
සොයාගනී
අපනයනයෙන්
ගැසේ
දුම්රියේ
සංඛ්යාත
අස්වේ
අස්වනු
මෝදිගෙන්
සමාගමට
##ේදීම
175
සේවාව
සේවකයින්
දියුණ
පිරිසකට
දැරියට
##ෝනියා
ක්රීඩකයාට
බලපෑමක්
බලාපොරොත්තු
පැවසූ
දුම්රියක
වර්ණ
හරවා
පකිස්ථානයේ
ධුරයේ
180
පුටින්ගේ
පුටින්ගෙන්
තුර්කියෙන්
නිලධාරීන්ට
ඉතියෝප
ජයග්රහණයක්
යුරෝපයෙන්
යානයක
ඊශ්රායලය
ඊශ්රායලයේ
ජර්මන්
මීටර්
මාරාන්තික
කෙසෙල්
හයිට
ඛාන්ට
රැස්වීම
මාර්ගයේ
සැරසූ
ක්රීඩාංගණය
පෙරළිකාර
ලන්ඩනයේ
ගොඩනැගිලි
යෝජනාවට
ස්ථාවරයි
නිමාව
ක්රීඩිකාවන්ට
සාමාජිකයන්
සමුදීමට
පෙළක්
රත්කළ
අනුග්ර
ලබාදීම
නිවේදනය
ශ්රි
නිර්මාණය
බරපත
රියදුර
##කාමී
තරංගට
තිළි
##ෂාල්
මාරුතයෙන්
ආයෝජකයන්
කැමරාවේ
කැනඩාව
බැරි
ප්ලස්
සිංගප්පූරුවට
යුවළ
06ක්
##ිවුඩ්
සහිතයි
හිතෙන
කරුණානි
පාඩුවක්
ගංවතුරෙන්
සම්මේලනයේ
වෙරළට
මට්ටමක
කුණාටුවකින්
පෘථිවිය
ප්රචලිත
ගාල්ලේ
සම්පූර්
අභිබවයි
කෞෂාල්
ගිලිහී
ත්රිත්ව
ගැබිණි
ගැලීම්වලින්
ආසන්නයේ
ඩිවිලියර්
සිහින
සැළසුම්
පොදුරද
විශ්වාසභංග
නේටෝ
ගොවිජන
නොදැවුණු
ක්රියාවක්
පැපුවා
අත්යවශ්ය
සැලැස්මක්
ගුජරාට්
හත්දෙනෙකු
වැඩිවීමක්
ස්ටීවන්
අනාගත
සිරදඬුව
මහවැලි
අභිරහස්
දියණියට
ජෝර්ජ්
ගුණතිලක
අධ්යාපන
අභිමානය
අවිශ්ක
විද්යාඥ
පුර්ව
රත්රං
සිමෙන්ති
බලාගෙනයි
ගැසට්
ක්ෂේත්ර
ජිවිත
නෙරපයි
සූරියවැව
පර්යේෂණ
ඇන්ඩර්සන්
ජ්යෙෂ්ඨ
ධම්මික
වොලිබෝල්
ජනනේන්ද්ර
වැඩසටහන්
බ්රසල්ස්
02
07
200ක්
300ක්
5යි
6ක
62
79
700
82
99
අන්ද
ඇරේ
ඉසිල
එබෝලා
ඔස්කාර්
කස
කූ
කෂ
කිත
කුර්
ඛේද
ගස
ග්ල
චම
ටෙ
ටෙක්
ටික්
ඩකා
තත්ව
තුරු
දුව
දායක
දුම්
දමන
දකුණ
ධාර
ධ්රැව
නර්ත
පුරු
පලා
පුවත්
ඵල
බියක්
බැති
බාල්
මිස්
මතක
යතුරු
යකඩ
රණ
වට්ට
වානි
වංච
සතිය
සවාර
සෑම
සල්මන්
හයක්
ෆිද
##යර්
##ිම්
##හාන්
##රිට
##ාඩ්
##ගු
##ගර්
##සූර
##සසුම්
##ලිකරුවන්
##කො
##1ක්
##පෙළ
##තාල
##ැඩ්
##වද
##වෙන්
##වම්
##වර්
##වෙන්න
##බී
##ar
##ඹුර
##0කට
##චර්
##TV
##PO
##න්ස්
##ාවල
##ත්ති
##ානා
##ානායක
##ිකන්
වෙඩ
වෙච්ච
ප්රපාත
##න්තය
##ිතව
##ිනී
##ිසියේ
වැල
##ිස්සියේ
##ල්ලට
පාතාල
##ක්ෂිත
දෙසට
##යාන්
##ාමීය
ලෝකය
##වාච
##ුණේ
හෙක්ට
පැසසුම්
##වරක්
##දිළි
පහස
සැඟ
අයිතිය
ක්රීඩකයින්ගේ
රැළ
##වේග
බංගලි
බ්රාවෝ
බ්රැඩ්
ගැටෙයි
##සේන
##සේකර
දැක
අතරමං
ඇරඹීමට
##සිගත
අනතුරක
මාලාවක්
වාහ
වාස්
බිහාර
හමුදාවෙන්
දිවියට
ඉරි
සීතල
අමාර
සංග්ර
රටින්
ඉවත්වෙයි
එකවරම
රාජකී
සියලු
සාම්ප
ත්රස්තවාදය
පිළිතුර
හදිස්සියේ
ආරක්ෂා
ආරක්ෂිත
වරෙන්
සිදුවු
පිපිරීම
මුදලක්
අඩව
අඩවි
##ට්ටි
තරගයත්
හිමිවන
සෞදිය
කුළ
කුකු
පුහුණුකාර
සටනින්
අත්හැර
රෝස
තරුණයෙකු
පෙත්ස
සාකච්ඡාවකට
සාකච්ඡාවලට
හෙළයි
නිෂ්පාදනයට
ජාතීන්ගේ
ලැබෙයි
හැමෝ
විදේශිකයන්
දේශයේ
ප්රකාශය
රාජ්යය
බැංකොක්
15ක්
1500
වටා
අපනයනයට
##සාස්
දක්වයි
ජනාධිපතිවරණය
ජාතිකයෙකු
17ක්
සේවයට
සේවිකාව
දියමන්ත
අවදානම්
ඉවත
දුෂණ
ඇතිවූ
##චාර්ය
අභ්යන්තර
ඇතුලූ
ICCය
යාමේ
ගන්නැයි
අරමුණ
සමාජශාලාවක
චෝදනාවට
25ක්
නියුක්
ශූරතාවය
සහයෝග
නිලධාරියා
වෙන්දේසියට
මවට
මවක්
ජයග්රහණයේ
කෘම
අභියෝගය
දැමීමේ
පනත
පනත්
පනවයි
කුසලානයේදී
පාරේ
ආධාරයක්
පිටියේදී
උද්ධමනයේ
රැස්වේ
කැරලිකරුවන්
විප්ල
ධනවත්
තිසරට
තිසරගේ
ජයලලිතාට
වෛරසයට
වෛරසයෙන්
අඟුරු
දැනුවත්
සම්මානය
පවුල්
පවුල
පවතින
හතරක්
වගකිව
එකඟත්වයක්
අනුස්ම
පුහුණුවක්
තහංචි
උළෙලේදී
ඊජිප්තුව
පාවාදී
වැසියන්ට
විරෝධතාවක
මංගල්ය
රහසිගත
ප්රතිචාරයක්
කේට්
සතුට
ලැව්ගින්න
සෞදියට
සෞදියෙන්
අයර්ලන්තයට
ගේල්ගේ
##ට්රික්
ගුවන්තොටුපලේ
සන්ධාන
පිටුපස
අවශ්යයි
රෝගයක්
සිංගප්පූරුවේ
උතුරට
පාඩමක්
සැපයුම
ආගමනය
අලෙවිය
දේවස්ථානයක
කැන්ගරුවන්ට
පැටවුන්
##කිරීමට
බිලිගනී
අසීරුතාවක
කියුබාව
පෙනී
ව්යාප්තිය
ජාවාරමක්
මැඩලීමට
බුකිය
පැහැදිළි
විනිසුරුවර
ඇඳිරි
අඛණ්ඩ
ගවේෂණ
පොදුරාජ්ය
ඉසුරු
දූපත්
මතුවූ
යතුරුපැදි
දෝෂාභියෝගය
නොදැවී
දෙසැම්බරයේ
පුටුවට
දැක්වෙන
ගබඩ
##ats
මර්දන
කුවේට
රූපවාහ
ජොන්සන්
ඩිලන්ත
ප්රාණ
වැසිකිළ
නරක
ආණ්ඩුකාර
වොෂින්ටන්
ඕනෑම
අත්හදාබැලීම
අවුරුද්දට
නිහඬ
ගැහැණු
විමර්ශන
##ෙරීනා
අග්නිදිග
සැත්කම
කටුනායක
පීඩාවට
අඛන්ඩව
උල්කාවක්
ගාලු
වෘත්ත
ෆොනී
##ද්වීප
නෝර්වේ
මන්නාර
ජීවිතාන්තය
පීටර්සන්
බරපතල
කරුණානිධි
චමරි
ටෙක්සාස්
ධාරිතාව
වානිජ
පාවාදීම්
1යි
49
58
61
63
600
71
96
CC
අශ
උර
උල්ල
එන්
කහ
කැට
කදු
කේන්
ගම
ගඟ
චාම
චමින්ද
ජම්
ඥාත
ටෙන්ඩ
තනි
දිර
දළු
නිසි
පථ
පින්
පුවර
පත්ර
පවරයි
බාස
බුල්
බෑන්
යවන
යෝග
රියෝ
රිප
රසල්
රවී
ලැ
ලං
ලෝල
වස්
සෆ
සපු
සල්ලි
හූ
හතුරු
හවු
හාවි
##ි්ර
##හලට
##හසක්
##හරී
##ාභ
##ගැස්
##සං
##ටන
##්ද
##5ක්
##කින
##1ක
##මත්වීමක්
##නවා
##නේදී
##දාය
##පියන්
##පන්දුවක්
##තල්
##ැල
##ඩිය
##ෝනි
##විලි
##වැනි
##hats
##ෘත්ති
##ෂු
##2යි
##ෆල්
##ෆිකර්
##ිකයෙකු
##ාරම්භ
##ුරුවා
##තික්
##යටත්
තරණය
කොන්
ලංකන්
##ට්ලර්
විඳ
##ුදායක
##ිවලට
කරගැනීමට
කරවමින්
##තුරක්
අවුල
##ිසබ
##ිසිංහ
සහනය
සංවත්
සංවාද
සංවාදය
සමීක්ෂ
සමාරම්භ
පාද
දෙම
නවී
මිලත්
ජයසූර
අපහාස
අනුව
##තුක
මැසිව
##රාධිපති
එක්ස්
##ාතික
පළා
පළුදු
##ස්ටන්
##තාවය
##සුන
බලඇ
##ත්වෙයි
පැල
පැල්
පිටත්
පිටසක්
20යි
මුෂාර
අගයක
කැණ
රැජිණ
තීරු
තීරය
වාර්ෂික
නොත
නොසන්
නොගත්
ලොවට
බ්රික්
ගැටෙන
ඉල්ලුමක්
බෝට්ටුව
වැටීම
දැලේ
එරංග
දිනටත්
දිගම
##ුවරට
නැත
නැතුව
විරහිත
අධිර
පොන්ට
අගමැතිගෙන්
අමීර්
ප්රතිලාභ
ප්රතිසං
රටවල
රටවලට
රටේම
රථයෙන්
රථයකට
වර්ධනයට
කොරෝන
සියල
##ුනිස්
නිව්
නිවැර
නිව්ගින
ඉනිමක
උපත
වරක්
යුදෙ
පිපිරීමේ
රජිව්
අඩුම
අඩියක
අඩපණ
ඇමතිගේ
හොද
හොකී
කෝට
කුළු
කුඩු
අත්හිට
තරුණියට
පහරක්
මණ්ඩලීය
ඩොලරය
ජාතිය
සංචාරකයන්ගේ
හැදූ
10කට
දේශයට
නගරාධිපති
කඩුළු
නිරත
දැවැන්තයා
නුවරින්
දුමාර
##ග්රෑම්
එල්ලකළ
19ක්
පැරිසියේ
විසුරුවා
ජනාධිපතිවරයා
සාමාන්ය
පාලමක්
කරන්නන්ට
තුවක්ක
ජාතිකයින්
ජලයෙන්
ආසියාවට
දියත්
##දෙනා
13ක්
##බඳුන
ඔබාමාට
දුෂ්
දුෂණයට
මූන්
අතේ
දුර්ල
චන්දිමාල්ගෙන්
සිරියාවේදී
ඇතුලු
හරින
##වරුන්ගේ
යාමෙන්
විරෝධතාකරුවන්ට
පුහුණුකරුගෙන්
අරගෙන
අරවින්ද
##ජිං
කැඳවමින්
උඩපන්දු
උඩරට
සභාපතිගේ
මාධ්යයට
ගෙළ
ගෙවීමට
##ළුවලට
අපේක්ෂා
අපේක්ෂාව
1000
දඬුවමක්
ගංඟ
පනස්
##ාහක්
විවෘතයි
ග්රැහැ
##ගමුව
හෙලයි
පළමුවරට
මාර්ගය
ස්ථානයට
අල්ලස්
පැරදුම
දුරකථනයක්
කාලගුණය
මොහොත
ඇදහ
බීජිං
වගාකරුවන්
ගතවූ
ඇමෙරිකාව
ක්රීඩාංගණයේ
ගිලී
තිබු
##ිලෝනා
පැවැත්වූ
දාපු
නොසතු
තුනෙන්
##ිල්ලක්
අන්තර්ජාලයේ
##නියි
සිදුකරන
නායකත්වයේ
සංගක්කාරගෙන්
ක්රමයට
මුහුණට
##දියි
වැස්සට
බේරාගත්
අනුශ
දරුවන්ට
පැහැරගත්
පැහැරගෙන
මගීන්ට
ලබාදෙන
කිලෝමී
පිතිකරුවෙක්
මලයාසියාව
සතියක්
සම්මු
තනතුරෙන්
පියාගේ
##ඤ්ඤා
සතුටින්
කාබනික
ගුණරත්
සබඳතාව
ප්රදේශයට
දඩුවමක්
තමිල්නාඩුවට
ගාන්ධිගේ
ඩිල්ශාන්
දේශපාලනයට
තායිවානය
පොලීසියට
සිසුවිය
විපක්ෂය
සාමාජිකයින්
මහමග
කෙරී
කෙරේ
ආබාධයක්
වළක්
වළකයි
වියට්නා
බද්දක්
යුවරාජ්
ස්පාඤ්ඤය
##කරණයට
බිහිවූ
රොකට්ටුවක්
විරාමය
දේවස්ථානයකට
පන්ජාබ
##කිරීම
ත්රස්තවාදීන්ට
චන්ද්රිකාවක්
ඉරියව්ව
දෝනිගේ
ගුරුවරයා
මන්දිරයේ
නියෝජිතයන්
ජේම්ස්
තිලාන්
ලිපි
වියට්නාමයට
ජනවාරි
කෞතුක
බුෂ්
සිද්ධියට
රැසක
ගවේෂණයට
ඇමරිකානුවන්ට
වසංගතය
ඉසව්ව
දමමින්
පොළොව
අගෝස්තු
ඉල්ලූමක්
ශ්රමිකයන්
මතුවෙයි
විධිමත්
ලාභයක්
හඳුන්වා
ඒකක
පිතිකරුවෙකුට
අපහසුතාවක
කනස්සල්ලෙන්
ගබඩා
ධර්මසේන
පන්නීර්
ලන්ස
ලන්කන්
මිලියනයක්
අධිකාරිය
ඩීසල්
දිල්ෂාන්
පෙට්ටිය
අලුතින්ම
තෝරා
මිහිත
සහභාගී
සරසවි
තිරිමාන්න
##ාක්ටික
හැකියාව
ක්රමවේදයක්
බැග්ඩෑඩ්
කෙටුම්පත
අපයෝජනය
ඇන්ටාක්ටික
උදුරා
##බ්ලිකන්
සංදර්ශනයක්
පසුබෑමක්
ව්යවස්ථාව
මාධ්යවේදිය
කැරිබියානු
පිරිවැටුම
ප්රතිපත්තියක්
යොමුවූ
ප්රකෘතිමත්වීමක්
මහරැජිණ
ඔපෙක්
ප්රතිකාර
දෙනෝදාහක්
චැලෙන්ජර්
තාන්ත්රිකයන්
තල්මසුන්
සුසන්ත
##සාරිස්
ජනරජ
උපදෙසක්
ජිවිතක්ෂයට
ඉසිලීමේ
කෂෝගි
කුර්දි
ෆිදෙල්
වෙඩිසිංහ
හෙක්ටයාර
වරෙන්තු
විප්ලව
CCTV
චාමර
බාසිලෝනා
රිපබ්ලිකන්
සපුගස්ක
මුෂාරෆ්
ග්රැහැම්
09
400ක්
67
6කට
60ක්
7ක
86
8කට
BPL
OP
Sam
update
අම්
අම්බ
අබ්
අශ්
අරුම
ආශ
ආක්රමණ
ආපද
ඇල්ල
ඇප්
ඉංග
ඉහල
ඉපැ
උමාර්
එස
එන්ජ
ඒඩ්ස්
ඔර
කකු
කෑම
ගල
ගන
ගී
ගූ
ගත්ත
ගමට
චින්න
ජනය
ජැක්
ටජ්
ඩෝර
තද
තාත්
තත්වය
දිස්
දවස
නෙ
නූ
නාල
නරඹ
නෙල
නසා
පරණ
බා
බුද්
මැන
මතු
මලි
මදුර
යෑ
යද්දී
ලයන්
වන්න
වාසනාව
වතාවට
ෂේන්
සාප
සබද
සෙරීනා
හාර
හිරි
හර්බ
ෆි
ෆී
ෆින්
##ෙස්ටර්
##ිඳ
##ිඳු
##හත්
##හොත්
##රයක
##ගල
##ගණක
##ේර
##සන
##සාධක
##ටග
##ලාව
##ලනයක්
##ලුම්
##කූ
##කගෙන්
##මිත
##දාද
##දුණු
##පර
##පේ
##පොල
##තය
##ඩම්
##ෝවේ
##ූට්
##බට්
##ණික
##ණාට
##sun
##il
##ir
##භෝජ
##භේද
##ශී
##ංඝ
##ජික්
##3ක
##ඝ්ර
##චෙස්ටර්
##ID
##IA
##ාවලින්
##ිකාවට
##ර්යාස
වෙද්දී
ප්රනා
ප්රවාහ
##කුගේ
##ායකට
##ංගික
##ංගල්ය
විවාදය
ඉන්දියන්
කරවූ
##රුග
##ාලාවේ
අවහිර
##ිමින්
සහගත
##ල්ලේ
##රණයක්
සමය
සමී
සමලි
පාප
පාපන්දුව
ලංකාවත්
දෙමින්
දෙහි
දෙවරක්
නවීන
##න්නු
ක්ෂණ
ප්රහාරයක
ප්රහාරවලට
##නීය
අපි
අපුරු
කළමණ
තරගවලට
##තුග
##ාමි
##රාල්
එක්වීමට
##වාසික
##ස්සවයි
පළඟ
කොටසක්
වැඩමු
වැඩියෙන්
පිටකොට
##ෙහාන්
##වරුවේ
##කරගත්
පරිසර
##ක්කාලි
කැළ
කැපිට
රැඳව
වසරයි
වනසයි
නොහො
බැහැ
##කාංග
බෝංචි
දේවි
ඇරඹෙන
දිනට
කටාර
සංචාරයේ
සංචාරයක්
##සිල්
අනතුරින්
මාලාව
දිවයින්
භූකම්ප
පොඩි
අගමැතිනියට
මෝල්
රටේ
ඉවත්වීම
එකමු
එකවර
එකතුව
තරගාවලියත්
දෙකෙන්
ක්රිඩ
ජීවිතයෙන්
සාප්පු
අහෝ
බෝම්බය
අයදු
ආරක්ෂාවට
පිපිරී
මුදලට
මුදුනේ
##වලටත්
සමුහ
හිමපත
පීලි
කුලී
ශූරයා
අත්හරී
තරුණයාට
තරුණියකට
පහරදී
##කරුට
හෙළිකළ
විශේෂයක්
නීතියක්
පාකිස්තානයෙන්
ලක්ව
ආර්ථිකයේ
නගයි
නිරූප
##යිනෝ
රැකවරණ
නුවරඑ
මිසයිලය
තැබේ
තැබීමේ
තැබීම්
කොළඹදී
##ාගාරයේ
##ාගාරයක්
ප්රංශයෙන්
තොරතුරක්
##කිල්ල
2013
2014
සාමය
පදව
##ත්රිම
මහාචාර්ය
සමාගමක්
නොවැම්බර්
පියඹා
මරණයට
මෙට්රික්
සේවයක්
ලාබ
දූෂ
වේගපන්දු
නීතිපති
පූජ
පූජක
මුහුදෙන්
ක්රීඩකයාගේ
140
කුමර
දෙදෙනෙකුගේ
අතවර
##ගැනීමක්
උත්තර
භාරත
දඩය
මාර්තුවේ
වර්ගී
ගන්නේ
පාර්ශව
සමාජයට
250
දිල්ලියට
181
උඩට
නිලධාරින
000ක
ගෙවන
බොරිස්
වෙළඳපළේ
100කට
ගුවනේදී
සිංහයෝ
විනාශය
කෘත්රිම
යුද්ධයකට
ආසාදනය
මතභේද
මාරු
මැලේරියා
ගොවීන්ගේ
23ක්
ඛාන්ගේ
තර්ජනය
විපර්යාස
ගණනක
ආරම්භයට
අධිකරණයේ
##ප්රහාර
ඇමෙරිකාවට
ක්රීඩාංගනයේ
මෙහෙයුම්වලට
සංක්රමණිකයන්ට
තිබී
පැවැත්වීම
තුනක
පෙන්වා
පෙන්ටග
පක්ෂයේ
සුද්ද
නතරවූ
සංක්රමණිකයින්
දඹුල්ලට
තාප්ප
සාගර
තොගය
බෙංග
රත්තර
රත්කරමින්
නෞකාවේ
යවන්නන්ට
ගාන්ධ
අවමංගල්ය
බිඳී
තොටුපල
තොටුපොළ
පස්වන
රියදුරු
සැමියාගේ
කොල්කටාවට
අර්ධද්වීප
පියාට
රහීම්
සුබපැ
පරිගණක
පරිභෝජ
අයවැයට
උත්සවය
කලාපයක්
කලාපයට
කලාපීය
දූෂණයට
දූෂණයෙන්
අභ්යාසයක්
පද්ධති
වාරික
වාරණයක්
මඟදී
ආයෝජනයට
සමුළුවේදී
කපූර්
විවේචනය
දියණියගේ
ගෙන්වා
පෘතුග
තායිවානයට
සිසුවියන්
##ලක්ෂයක්
කැනඩාවට
ඇවිද
හම්බන්තොටට
බැරක්
ප්රශ්නයක්
වැදීමෙන්
ග්රීන්
යුවල
පිපිරීම්වලින්
සමාගම්වල
පාඩුව
අරමුදලෙන්
ග්රහයා
ග්රහණයට
හානියක්
වෙළදපොලේ
යලිත්
සෙනස
කිරුළු
චන්ද්රිකාව
තත්ත්වයක
අදියරේ
වටිනාකම
ජනාධිපතිවරණයේ
ඩිල්ෂාන්ගේ
වර්ජනය
වර්ජනයක
දෙපිල
හෝටලයක
හෝටලයකට
ජේසන්
ලිබියානු
වැරදුන
ප්රවෘත්ති
ඇරයුමක්
වෙන්දේසියේදී
ගිලිහෙයි
සුඩාන
ත්රිත්වයක්
ප්රමිතිය
අටදෙනෙකු
##ගන්වයි
අවප්රමාණය
ක්ලින්ටන්
මහමැතිවරණය
ජනපතිවරණයට
උත්සාහය
ඇදවැටුණු
විශ්වාසය
පොලිසියට
පොලිසියෙන්
පුරවැසිභාවය
කෙන්යාවේ
යතුරුපැද
ඉදිකිරීම්
බොලිවුඩ්
අප්රිකානුවන්ට
බිළිඳා
මඩුලූ
මර්දනයට
සොහොයුරා
පවත්වන
නිලධාරියෙකුට
තිරිමාන්නට
සැණකෙළියක්
පිරිපහදුව
ගිනිකන්ද
බිලියනයක්
හානිකරගනී
ශාන්තුවරයන්ගේ
ගණුදෙනු
පෙබරවාරි
අබේ
බහුතර
ආජන්ටින
තෙරපීමකින්
දුප්
ප්රචාරක
##ිස්ටෝර
උපන්දින
සැමරූ
සැමරුම්
කල්ලියක්
අවන්හල
සාක්ෂි
ඇතුළත්
සන්නිවේදන
පල්ලෙකැලේ
ඉපයීම්
උගන්ඩ
මිරිදිය
මැන්චෙස්ටර්
සම්පූර්ණ
ක්ෂේත්රයේ
ඛේදවාච
පුරුෂ
බැතිම
ප්රපාතයකට
ධනවත්ම
අඛණ්ඩව
අශෝ
උල්ලංඝ
හවුති
##ිසබෙත්
සංවත්ස
ජයසූරිය
පැල්මයි
පිටසක්වල
බ්රික්සිට්
නැතැයි
ප්රතිසංස්ක
යුදෙව්
දුෂ්කර
ඇදහිය
කිලෝමීටර්
ඇන්ටාක්ටිකාවේ
චැලෙන්ජර්ස්
සපුගස්කන්ද
OPPO
Samsun
ගූගල්
ඩෝරියන්
බුද්ධි
හිරිහැර
ප්රනාන්දු
ප්රවාහනය
සමලිංගික
කළමණා
Samsung
2ක
4කට
40ක්
51
66
6කින්
73
8ක
900
අති
අයෙකු
අජ්
අඳුර
අම්මා
ආග
ආක
ආකර
ආසි
ඇට
ඇඹ
ඇස්
ඉටු
ඉවරයි
ඉකුත්
උදෙ
එමීර
ඔල
ඔට්ටු
කෙල
කනි
කසල
ගියේ
ගඩා
ගබ්
ගෙල
ගංගු
ගන්වයි
ඞී
චලනයක්
ටැ
ඩැර
තක්කාලි
දීමක්
දන්වයි
ධූ
නස
නළු
පෑ
පටි
පටන්
බීම
බඩු
බාලි
බුද්ධ
මල්ල
මත්තල
යෙ
යා
යටික
යහන්
රති
රකින්න
රයිනෝ
ලුණු
වෝ
වගේ
වනා
වුවත්
වෑන්
වරුන්
වාග්
ෂෙල්
ෂෙහාන්
සිල
සෝද
සපිර
සාගත
සම්භ
සාධක
සරේ
සිකා
සෝනියා
හැට
හුස
හියු
ළදරු
ෆොක්ස්
##ිදු
##ුක
##ාෂ
##සො
##සම්
##සෙන
##සෙයි
##සීමක්
##සෙල
##ටර
##ටුව
##ටික්
##ලයේ
##ලයක්
##ලෝන
##5කට
##මඩ්
##නිස
##නික්
##දුන්
##දැක
##පැව
##ැකි
##බල්
##බාර
##බාද
##ck
##ho
##sh
##ඳී
##භන
##2ක
##චෙල්
##li
##en
##ro
##ආටා
##ඛයි
##න්ම
##ියාගෙන්
##යිස්
##ාවෙයි
##ස්බෑ
##ත්යා
##ත්තා
##ුවෝ
##ුවෙල්
##ුවරුන්
##ිකාවේ
##ම්හ
##ර්ගේ
ප්රමා
ප්රසාදය
ශ්රීල
ශ්රීදේ
##ුදා
##ුද්ර
##ුදුර
##ිනෝ
ඇමසන්
##ිසැර
වැට්
වැන්නා
##නාගේ
සංවාදයක්
##ම්පුර
##ක්ෂක
දෙකට
මිලකට
ක්රිකට්වලට
ඉන්දියාවේ
ක්රීඩාගාරයට
##ාගිය
##ාර්ක්
ක්ලා
අපතේ
අනූ
පිඹුර
##තුංග
මහපාර
සිං
මැජික්
ලෝකෙ
ලෝකඩ
එක්වී
එක්වීමේ
##වාට
##ාතන්ත්ර
හෙල්ල
බලෙන්
පිටතට
##වරයෙකුට
කිරීමෙන්
##කරයට
##කරන්න
##කරගෙන
##කරුවෙක්
බවුස
මුඛ
මුෂ්
දෙනෙකුගේ
වසඟ
නිශ
අත්දැක
සුනි
සුගත
පුත්තල
ජනපතිනියට
සැහැ
##ක්කේ
අයිෆල්
කැස්බෑ
සිරවෙයි
ක්රීඩකයෙකුගේ
රැල්ලක්
වසරට
බැඞ්
ලොවටම
එංගලන්තයේදී
ගැටලූ
##ාධාර
දැයි
දැමුණු
දිනන්න
දිනාගනී
පාකිස්තානු
සූකර
බිහි
ත්රිප
පොත
පොතට
සීයා
සංගාගේ
ප්රතිශ
ලබාගනී
රාජ්
කොරෝනාව
ඉලෙ
නිවහන
නිවසේ
ඝාතකයා
ත්රස්තයන්ට
පිළිකා
සූදානමක
සේද
හදයි
හදන්න
හදපු
ගොදුරු
සිදුවීම
අඩස්
අඩාල
ඇමතිනිය
පැමිණිලි
ශූරයන්
පරාජයේ
සටනකින්
##දෙනෙකුට
වාසියක්
ඇමරිකාවේදී
හෙළිවූ
##ින්නේ
විශේෂඥ
නගා
හින්දු
ගොඩගන්න
රැකියාව
තායිපේ
150ක්
දුමාරය
##ග්රහ
තුඹ
එල්ලවන
එල්ලවු
ප්රධානී
ප්රධානියෙකු
ප්රංශයට
හේතුවක්
තරඟයටත්
##කිබ්
විසිතුරු
දක්වන්න
ගැටුමෙන්
ගැණුම්
දුම්රියට
තැනක්
අස්වීමට
ක්රීඩකයන්ගෙන්
නොවූ
මොස්ක
170
සේවයේ
සේවාවක්
##තමාලාවේ
139
1300
අමුත්තා
දැරූ
##ෝනිට
ප්රාන්තය
##ස්ථානයේ
නීතිමය
ලොක්කා
141
සමගින්
බලපෑ
බලපෑම
මරයි
ඇතුල
ඇතුල්
කුසල්ට
තබමින්
කිරීමේදී
නියාම
182
උඩින්
පොල්තෙල්
ගිවිසුමක
ඇඟලුම්
සිසුවා
සිසුවෙකු
ගෙවීම්
කර්මාන්තයේ
ඩොනල්ඞ්
යටවූ
යටවී
පැමිණිල්ලක්
ලොකුම
ජයග්රහණයෙන්
කිහිපයකින්
සිංහයන්ගේ
සිංහයන්ට
විනාශයක්
ඕස්ට්රේලියාවේදී
අර්බුදයට
මතය
මතයක්
අවසාන
පනතක්
මාරක
හෝරා
මහේලට
මැලේසියාවට
කෙටි
කෙවින්
ස්ථීර
කමිටුවට
ඛාන්ගෙන්
ඉතාලියට
මාර්ගයක්
මාර්ගයක
රංගනට
කැරැ
22ක්
මොහොතක
ඇදගෙන
ඡන්දයක්
විකිලී
අමාත්යවරුන්
අන්තර්ජාතික
ක්රීඩාංගණයට
පෙරළිය
පෙරළියක්
ලන්ඩනයට
ක්රියාකාරී
නියමුවන්
දෙදෙනාට
27ක්
බැලීම්
පවසා
විවාහයට
අන්තර්ජාලයෙන්
මිෂ
මිශ්ර
මිචෙල්
නතරවෙයි
සංගක්කාරගේ
2000
පුපුරුවා
වැස්සක්
බේරන්න
බේරෙයි
අනුගාම
පුහුණුවට
තහංචියක්
ලබාදීමට
ලබාදීමේ
නිවේදිකාව
නිර්දේශ
අල්ඛයි
ධීවරයින්
පස්වරුවේ
ක්ෂුද්ර
බහාල
කැළඹෙයි
අනුපාතය
සුබවාදී
ප්රතිචාරය
නයිජීරියානු
පිහින
මධ්යස්ථානය
මධ්යස්ථානයක්
කඩාවැටේ
කඩාවැටුණු
අභ්යාසය
ගිම්හ
පද්ධතියට
ප්රභල
##ාගැනේ
ගුණයකින්
ප්රදේශයේ
රිද
මෙහෙයුමක
සිසුවියකට
නියෝජනය
##ැකියාව
කැමරන්
##කර්තා
විසඳන්න
ගුවන්තොටුපොළ
ප්රතිපත්තිය
ඉඩක්
කවුද
ප්රමාද
සොයන
පිතිකරුවන්ගේ
පන්දුවාරය
පන්දුවාරයේ
දැරියගේ
ග්රීසිය
##ලීග්
##ජනක
විමසීම
සටන්කාමීන්ට
අවලංගුයි
හිතකාමී
සැපයීම
පිරිමින්
රොකට්ටුව
ගුටි
සංකීර්ණයේ
ක්රිස්ට
සෙබලුන්
ගිණුම
මර්ස්
කොමසාරිස්
අනාවැකි
හේරත්ට
ප්රචණ්ඩ
කියුබානු
පාවාදීම
පාවාදුන්
ලියාපදිංචියේ
සීමාවෙයි
විවේකයක්
ජාවාරම
ජාවාරම්
අක්මාල්
තමන්ගේ
කොල්ලකරුවන්
ඇපයට
සිද්ධියේ
අමරිකාව
විලියම්ස්
ක්රියාත්මකයි
තොටුපළේ
ජූනි
මානසික
වෙළදපළේ
ඩෙංගු
නාඩු
සත්වෝද්ය
වසංගතයක්
සුනඛයා
සලකා
ඉල්ලූම
පිළිබදව
බෙල්ජියම්
බර්ලින්
ඉක්වද
ජීවය
දෙසැම්බර්
රෝහලට
සූර්යබල
ආපන
තැත්
බ්ලූ
කණගාටුවෙන්
කුවේට්
හොරෙන්
මුහුණදුන්
මැදිහත්
මැදිහත්ව
කොන්ත්රාත්තුව
ඉස්සන්
සැණකෙළිය
කොළොම්බියාවේ
ලකුණක්
ප්රජාතන්ත්ර
රැජිනගේ
නැවතුණු
ලෙබනනයේ
යුගල
නායයාමකින්
යුක්රේනයේ
අඳුරු
ඇල්ප්ස්
බයිඩ්න්
රෙදි
ඇගයීමට
චාරිකාවකට
පොරොන්දු
පෙබරවාරියේ
පානීය
ප්රවීණ
මාධ්යවේදීන්
ටියුනීසියාවේ
නිරෝධායන
උෂ්ණත්වය
##ෂීඩ්
කැඩූ
අන්තිමට
ජෙරුසෙල
ශාරුක්
සිනමා
විගණ
බලාසිට
බලකායක්
ගගනගාමීන්
කන්ටේනර්
උල්කා
රාමසාන්
සක්රිය
ප්රියංකා
මහත්මා
##වාසීන්
2050
ස්වීඩ
දියුණුවට
හයිටියේ
ඩිවිලියර්ස්
විශ්වාසභංගයක්
සිරදඬුවම්
කූඩ
නර්තනය
බාල්දු
මිස්බා
රණතුංග
අමාරුවේ
සංග්රහ
රාජකීයන්
හදිස්සියේම
පෙත්සමක්
හැමෝම
ජම්මු
ටෙන්ඩර්
යෝග්ය
##ගැස්වූ
##දායී
සංවාදයක
මැසිවිල්ලක්
නොතකා
නොසන්සුන්
අධිරාජ්ය
නිවැරදි
තුවක්කුවක්
දුර්ලභ
අනුශූර
වියට්නාමය
ඉසව්වෙන්
අබ්දු
අශ්වින්
ඉංග්රී
ගනුදෙන
චින්නම්මා
මැනිලා
ක්ෂණික
රැඳවියන්
අහෝසි
ලාබාල
භාරතීය
දුප්පත්
බැතිමතුන්
අශෝභන
උල්ලංඝනය
ආසිආටා
උදෙසා
ගඩාෆි
ගංගුලි
යටිකුරු
රතිඤ්ඤා
වනාන්තර
##පැවැත්ව
මහපාරේ
සුනිල්
සුගතදාස
බැඞ්මින්ටන්
මොස්කව්
විකිලීක්ස්
අල්ඛයිඩා
3න්
4ක
56
54
76
78
77
8යි
95
Air
Whats
අන්ට
අන්ගේ
ආධ
ආසිය
ආප්ප
ඇන්
ඇයි
ඉඳ
ඉසි
ඉහලට
උක්
උදාන
ඔන්න
ඔහු
ඔබ්බ
ඕවර
කයි
කාය
කිම
කල්ලි
චූ
ටූ
ඩිම
තර්
තිත
ත්රික
තල්ල
තිරි
තටා
දො
දෛ
දෝනිට
ධූර
ධාවක
ධවාන්
නඩ
නංග
නදී
නැට
නමින්
නඩා
පුව
පති
පළි
පමා
පිස්ටෝර
බස
බැන
බණ්ඩ
මංක
මගිය
මිහිප
මතුවේ
යෝධ
රඳ
රාව
ලිස්
ලූණු
වක
වඳ
වට්ස්
ශාන
ශාලා
ශුද්ධ
ශමින්ද
ශකිබ්
සෑ
සයුර
හට
හප
හත
හක්
හංග
ෆිල්
##ෙට්ටි
##යියා
##යෑමක්
##ොක්ර
##හේ
##හට
##හක්
##හැව
##ුලා
##රෝ
##ගය
##ගෝ
##ගිර
##ගයක්
##ගෝල
##ේත
##සෝ
##සාන
##සයට
##සීමට
##ලදී
##ලෙයි
##ලාන්
##ලයක
##5ක
##කන්න
##කයෙක්
##මස්
##මැද
##නාවක්
##දීමට
##ීට
##ීව
##පොර
##පෝල්
##ත්රී
##තලා
##තියෙන්
##ැම්
##ැකු
##ඩන්ගේ
##වත
##වක්
##වාගෙන
##විවේ
##වුල
##වෙලා
##වාලූ
##ළේ
##ළුම
##ූල්
##ූටෝ
##බන්
##ණියක්
##up
##he
##ah
##ෂෙ
##ෂියා
##චි
##8ක
##HO
##යිං
##යිඩර්
##ුවාන
##ුවර්
##ුවොත්
##ානයක්
##ානුවෙකු
##ම්ට
##ල්දාද
##ාරි
##ුරක්
##න්දා
##න්දුවෙන්
##ර්ට
##තිම
##තිවාසික
ප්රකට
ප්රාග
තරණයට
තරිඳු
##ායයි
විවාද
වික්ට
##ණුගම
##ිවා
##ිවී
##ිව්ගින
කරුණු
කරගන්න
කරවිල
##ිසන්
##ිමක්
##ල්ලර
##ල්ලන්
##ල්ලකින්
සංර
##ුපති
නවත්ව
නවතින
##ුමකින්
##සියක්
##සියානුවන්
##න්නන්
අදින්
##ලන්තයේ
##ලන්තයට
ජයගන්න
වෙළෙ
අපට
අපරාජ
##ම්බියාවේ
කළැයි
##ලියේ
##ලියන්
##ාන්ත්
මහල
සිල්ලර
මැඬ
මැදුර
##ුන්ටන්
කාඩ්
එක්කර
##ස්සා
හෙවිවේ
##00ක
##ව්පියන්
කොටස
##තාවයක්
වැඩකට
වැඩිහ
වැඩිවේ
සුපිර
බලයට
බලයෙන්
බලවත්
බලහත්
203
කිරික
##ෂ්ප
##තාස්
මුං
විස්සක්
##ියටත්
අත්කර
වීදුරු
ජනපතිවරුන්
වෙනසට
අයිතිවාසික
කැස
සිරියා
ක්රීඩකයෝ
##තුවේදී
නොන
නොඑ
බැසිල්
බ්රහස්
##කාට
ඉල්ලන
ඉල්ලීම්
ස්වා
බෝයිං
වැටි
දේප
##ැබ්
අතරේ
විදියට
දිනක
දිනන
දෙවනත්
සංචාරයේදී
##සිංහ
##ලේදී
##ස්තුවට
ගියත්
නැද්ද
අනතුරුදායක
විරැකියාව
පිලිබ
##ිපත්
##ිපතිය
පෙරට
##ාවේදී
පොතාස්
අගමැතිවරයෙක්
සීග්ර
සංගණ
ප්රතිවාද
ප්රතිප්රහාර
සොයි
සොරා
සොල්දාද
රථයට
##ලාට
තරඟාවලියකට
එකපෙළ
සැරසුණු
දෙකේ
පන්දුය
ඉලෙක්
සාක්
හෙටයි
හෙටින්
ඝාතකයන්
ත්රස්තයින්
යානයෙන්
යානාවක්
සංචිතයේ
චීනයත්
අහසේ
අහමඩ්
සූදානම
සේන
උපත්
ලෙඩ
ගොදුර
ගොනු
සිදුවෙයි
අඩක්
සමුගැනීම
ඇමතිවරයෙක්
හොය
හිමිකරුවන්
හිමාෂ
අසලට
අසාධ්ය
##හස්ථ
රෝයි
##මන්ඩ්
තරුණියක
වෙන්වීමට
වෙන්වීමේ
එරෙහිවූ
අහිමිවූ
නිෂ්පාදිත
ගිනිගනී
ලැබීමේ
ලැබුනු
හැකර්
විදේශිකයන්ට
ලක්වී
රුසියා
##කාරයෙන්
##යිලූ
නිරීක්ෂ
හිල්
##මේදී
ප්රබලතම
ගොඩක්
සඳුදා
නම්කරයි
1500ක්
තීරණයකට
කාලයේ
කලහ
තැබීම
තැබීමෙන්
එල්ලා
දරුවාට
චීනයේදී
පරීක්ෂණයකට
ආදරව
ගැන්
ගැට්
ගැසූ
පාලම
පදන
අස්වීම
##ලූම්
නොවැම්බරයේ
113
118
ආසියාව
128
172
පුරවර
130
අමුණුගම
දූවිලි
ලක්ෂ්
ලක්ෂාන්
ලක්ෂයකට
සෙවූ
මැදට
රොෂාන්
වේගයෙන්
##ස්ථානයට
නීතිගත
භාණ්ඩාර
අතහිත
##වරයාට
පහළයෑමක්
මරාද
ඇතුලේ
මාර්ක්
වියළි
හරි
හරිත
ඉරාකය
ඉරාකයෙන්
සුරැකු
##ජිත්
කැඳවීමක්
කැඳවු
නගරයක
ගෙනෙයි
##ෆ්ට්
උණුසුම්ම
නියමු
සභාපතිට
පහරදීම
ඇඟලූම්
මාධ්යවේද
ඉතිහාසයට
ගෙඩ
සැලසුම
කර්මාන්තකරුවන්ට
මවුන්ටන්
අපනයනවල
යටතේ
යුරෝපීය
විනාශකාරී
ගංජා
ආදායමේ
තායිලන්තයෙන්
නයිට්ර
නිෂ්පාදනවල
##ගමනයක්
පාරට
දුරකත
ලේඛ
අඩුවන
මුල්තැන
තනිව
ස්ථානයක්
කැරට්
විපක්ෂයට
විශාලම
පැරදුණු
ආරම්භයක්
312
දරුණුතම
මගින්
ඇමෙරිකා
කටයුතුව
ගිලේ
නියමිත
යේමනයට
ලේකම්වරයා
දාන්න
යෝජනාවලිය
නොසැල
කඩාවදී
තුනකට
පවුම්
පවසයි
විවාහය
පෙම්වතියට
පැනපු
පැනමා
පැනවීමට
ජෝර්
විශිෂ්ඨතම
මෙක්සිකෝව
එකඟත්වය
පෙළේ
පෙළපාල
වෛද්යවරයෙකු
33ක්
බෙදුම්
හිලරිට
පැහැරගනී
පසම
පසෙක
යවන්නෙක්
කිලෝග්රෑම්
පාවහන්
ලාංකිකයන්
ලාංකිකයන්ට
විදුලිබල
බහරේ
සතො
කැළඹු
රහසේ
තරංගගේ
තරංගගෙන්
ජනතාවගේ
පරිත්යා
අරාබියෙන්
60කට
කඩාවැටීමෙන්
අභ්යාසයකට
දිමුත්ගේ
ඇලස්ක
නැතිව
රිච
තමිල්නාඩුව
ධාවනය
මනු
පොලීසියෙන්
ගහලා
ජර්මනියේදී
සාමාජිකත්වය
යාත්රාව
හුවමාරුවක්
හතුරුසිංහට
ආබාධිත
බැරලයක
හිරෝෂ
ප්ලූටෝ
රෝගයට
රෝගීන්
කාර්යාලයට
45ක්
වන්දියක්
කොංගෝවේ
විමසීමක්
අළුබඳුන
##රවීර
ප්රවර්ධනය
පාසලේ
පාසැල්
බැලීමකට
වෙරළේ
විශ්මිත
හැසිරීම
අරමුදලේ
සංකීර්ණයක්
ඩේල්
මට්ටමේ
මට්ටමට
හානිය
අලෙවියට
ලාංකිකයින්ට
මුරලිගෙන්
සම්මානයට
ගල්ෆ්
සංශෝධනයක්
සිරුරට
ජනාධිපතිවරණයෙන්
තලෙයිබාන්වරුන්
කශෝගිගේ
වර්ජනයකට
පාවාදීමේ
ලැයිස්තුවට
වැරදිකරු
වියට්නාමයේ
අස්වැන්නක්
බලාගාරයක්
සිරියාවෙන්
කෞශ
තිරුපති
විලියම්සන්
සටහනක්
ත්රිත්වය
අධිකරණයකින්
##ත්නම්
සුළග
ගෘහස්ථ
නාශක
ජනපතිවරණයේ
නිර්මාතෘට
ඇසෑම්
නංවන්න
පොලිසියේ
කැරළිකරුවන්ට
ශ්රමිකයන්ට
කාමර
දොරටු
නටපු
රේගුව
බලවතුන්
කෙන්යාව
ඉක්මන්
පතල්
කළමනාකරු
කළමනාකරුවන්ගේ
දැන්වීම්
තාක්ෂණික
බොලිව
හසන්ට
නවදිල්ලි
සුකීට
පුටුව
කවුන්සිලයෙන්
ආපසු
පන්නයි
හසුවෙයි
2022
මැදපෙරදිගට
සර්ප
සර්බ
පැපුවාන
පෙට්ටි
විකිණීමට
මුහුණදෙන්න
ගුජරාට
ඔසවා
මිතුරන්
එළඹෙන
කුලසේකර
ස්ටීව්
මව්බිම
මව්බිමට
චන්ද්රයාන්
හුවමාරුවකින්
මහමැතිවරණයේ
වොෂින්ට
බදාදා
හෆීස්
හෆීස්ට
හිංසනය
මූලික
දෝෂයක්
අර්ජුණගෙන්
රෝයල්ස්ට
පොරොන්දුවක්
දිලීර
දිල්රුවන්
මාතලේ
ප්රසාද්
වෙළඳසැල්
නික්මේ
අභියාචනයක්
සූත්රය
නවදිල්ලියේ
නිරෝධායනයට
විභාගය
නිලවරණයට
පසුපස
රයිඩර්ස්
ජෙරුසල
ඔක්තෝම්බර්
ඇසිල්ලකින්
ඔස්ටි්ර
කර්ණාට
දිරිගැන්
වරුන්ට
කාටද
ගුවන්යානයක්
ස්විට්සර්ලන්තයේ
පැරීසියේ
දුකෙන්
යොදවයි
නොහැකිව
ෆ්ලොරිඩ
උස්සයි
කථාව
නොලැබ
බුලත්
මොළකරු
අනුරාධ
පළාතේ
ස්පේස්
ප්රතිඥා
එකිනෙක
වටිනාම
තිළිණ
විද්යාඥයින්
දායකත්වය
බිහාර්
ඉරිඟු
පිළිතුරක්
නියුක්ත
සහයෝගය
අනුස්මරණය
රූපවාහිනී
කැටලෝන
ඥාතීන්
කොන්සල්
දෙමව්පියන්
කොරෝනාවෙන්
නිව්ගිනියා
දුමාරයෙන්
නොසතුට
ලන්සුවක්
මිහිතලය
මාධ්යවේදියෙකු
ඉපැරණි
ජනයා
දිස්ත්ර
නූලෙන්
සබදතා
හර්බජ
සමීප
වැඩමුළුවක්
කැපිටල්ස්
අයදුම්පත්
නිරූපිකාව
ගාන්ධිට
අර්ධද්වීපයේ
සංවත්සරය
පැල්මයිරා
ප්රතිසංස්කරණ
ආකරයක
කනිෂ්ඨ
ඩැරන්
යහන්ගත
ලෝකෙටම
බවුසරයක්
මුෂ්ෆිකර්
ප්රතිශතය
ඉලෙවන්
බහාලුම්
ලාබාලතම
ඉසිපත
ඔබ්බෙන්
කායවර්ධන
ඩිමොක්ර
ධාවකයා
නඩාල්
පතිත
මිහිපිට
හංගේර
ප්රාග්ධ
වික්ටෝර
හෙවිවේට්
බලහත්කාරයෙන්
අයිතිවාසිකම්
බ්රහස්පති
එකපෙළට
ආදරවන්ත
සුරැකුම්පත්
නයිට්රයිඩර්
බෙදුම්වාදී
පැපුවානිව්ගින
ඔස්ටි්රය
කර්ණාටක
ඩිමොක්රටික්
02ක්
07ක්
47
4න්
69
68
70ක්
81
98
97
94
9යි
Co
CPL
FC
FB
Hu
SA
අජ
අකර
අමි
අබාධ
ආල
ආයා
ආචාර
ඇළ
ඇබ්
ඉයන්
ඉස්ස
ඉගැන්
උරණ
උඳු
උදර
උරුග
එට
ඒමට
ඔට
ඔන්
ඔෆ්
ඔටු
කුව
කගේ
කදී
කථාන
කෙනෙකු
කමින්
කබල
කනේ
කදව
ගය
ගංග
ගායක
ගනි
ගීත
ගෝල්
ගප්ට
ගනිමින්
ගනියි
චර
චිබ
චමීර
ජා
ජකර්තා
ටේ
ටික
ටින්
ටිම්
ඩු
ඩුප
ඩබ්ල
තාම
තට්ට
දෘ
දයා
දියේ
දළඹ
නාස
නමයි
පන්ත
පද්
බළ
බද්ධ
බුදු
බට්ලර්
භය
මම
මද
මෘ
මෑ
මාග
මර්ධ
මැටි
මිනි
මංජ
යවා
යූර
රද
රුම
රකින්
රගර්
ලඟ
ලතින්
වයි
වැන
වසී
වුණු
වදින
වීමෙන්
වහල
ශේෂ
ෂැ
ෂින්
ෂර්මා
සග
සෘ
සුම
ස්ල
සාජ
සදා
සපත්තු
හු
හුද
හමු
හොල
හස්ත
හතල
ළමයි
ෆු
##ෙව
##ෙති
##ෙළි
##ිළි
##ිඩා
##ොයි
##ොල්
##ොල්ල
##හිරි
##ුහ
##ුනා
##ුල්ලා
##රාව
##රයෙන්
##රාවට
##රුවෙන්
##රින්න
##ාංග
##ාංශ
##ගස්
##ගඩි
##සැම්බ
##සෝන්
##ලන්
##ලාමීය
##කට්
##කෙරේ
##කයින්ට
##9යි
##මග
##දිත
##දමයි
##දුම්කර
##ීරික
##පෙ
##පන
##පර්
##පතු
##තැබ්
##ැද්ද
##ැලක
##ඩෑ
##ඩෝන
##ෝට
##වය
##වාන
##වාල
##වින
##විස්
##වුම
##වතු
##වෙල්
##වීර
##ූත
##බයි
##ණතාවක්
##ce
##in
##aw
##ad
##ax
##ඳි
##භාවිත
##ශක්
##ශාලා
##ජේ
##ජිට
##ෛරී
##ථානු
##6යි
##ඟය
##37
##2කට
##gle
##el
##DB
##7යි
##to
##MS
##App
##fe
##ියස්ට
##ියානුවන්
##ියුනිස්
##ක්වයි
##්රජන්
##ාවන්
##ාවත්
##ාවශ්ය
##ුවකු
##ානයෙන්
##ානුවා
##ාරක්ෂක
##ුරාදා
##න්දුවට
##ර්ඩ්
වෙමින්
ප්රින්
ප්රදාන
ප්රකෝ
ප්රසූ
ප්රමාණය
##න්තුවර
##ායාම
කොන්ඩ
කොලො
##ිලාල්
විහාර
##ුද්ගල
##ිවෙ
කරා
කරච්චි
##ගේල්
##රුන්ගේ
##ාලය
##ිනිය
##ිනියක්
ඇමතුම්
අවවාදයක්
අවභාවිත
##ිසුණු
වැසී
වැසුණු
##ිස්ථාන
##ානුකූ
සහකාරිය
සමත්
සමයට
සමරවීර
පාස්
පාත්ර
ලංකාවයි
ලංකාවේ
දෙපා
දෙදර
නවාත
ගැනත්
මිලින්ද
ඉන්දියාවත්
##ාගෝ
##ාගන්නා
##ාර්මික
ක්ලිෆ
ජයගෙන
##මුහ
##මුල
##ම්බු
පිදුම්
මහින්ද
සික්ස්
මැමත්
මැක්ස්
ජනරාල්
කාසි
##ුණත්
##ුණාම
##ුණෑග
##ස්සන
හෙල්
පළග
කණ්ඩායමේ
කොටා
වැඩිප
වැඩකරුවන්
##වලු
ගුවන්ය
පැන්
පැට්
පැදි
පැකේ
ඡායාරුප
පිටවන
පිටත්ව
කිරිමට
##සීර්
##කරන්නැයි
##ෂ්ට
මුළු
මුලින්
දෙනෙකුගෙන්
වසන්තය
අත්ලාන්
##ොරො
අගදී
අගවින
සුල
පුෂ්ප
##හනේ
##්ලොක්
##ක්කම
සිරගත
වූයේ
වූහාන්
රැඟ
රැයේ
##ප්පා
##විල්ස්
##වේස්
##ාජ්
නායකයන්ගේ
තීර
තරඟයකින්
තරඟයකදී
වනු
වනවා
වනෝද්ය
යයිද
නොගිය
නොමනා
නොපැවැත්ව
බැට්
ගැටුණු
විශ්ල
බෝතල්
කාන්තාර
දැමු
##ාපිත
අතරින්
දිනයක්
දිනයේදී
දිනාගත්
දික්ක
බංග්ලාදේශයෙන්
බංග්ලාදේශයේදී
සංචාරයෙන්
සිටුවන්න
ගියොත්
නැඟ
මාලගමුව
##මාස්
ජීවත්
පිලි
##ිපත්ය
බිඳව
දිවියේ
දිවගිය
පොප්
අගමැතිවරයා
මෝසම්
සීක්
සංගාට
ප්රතිමාව
සොහ
රටෙන්
රටවලින්
ඉවත්වේ
රථයකින්
##ලාම්
වර්ධා
එකෙන්
##ණයකින්
පොලි
සියව
සියළු
ආයෙත්
ක්රයිස්
නිවුන්
නිවසක්
සාන්තුවර
##ත්තම
හෙටත්
ඝාතනයක්
ඝාතකයන්ට
ත්රස්තයා
පිළිස්
වාර්තාවෙයි
##ිකරන
අයුර
අයදී
ඉනිමේදී
වරප්ර
වරදියි
තුන්ලක්ෂ
මුදලින්
##ට්ටුවට
සමුගැනීමේ
හිමෙන්
පීර
අසාර්
අසමත්
##පාදන
පිරේ
පිරින
රෝගී
තරුණයකු
මණ්ඩලයක්
ඩොලරයට
##වැසිය
##වැද්ද
ලැබෙන්න
හැක්
හැප්ප
##ර්ශනය
10ක
101
නීත්ය
ලක්වු
ඉන්දුනීසියා
ප්රබලයින්
රාජ්යයෙන්
සඳේ
බැංකුවට
රැකීමේ
15ක
පිළිගැනීමට
ජාත්යන්තරයෙන්
එල්ලවෙයි
දීපු
ප්රධානීන්
කාන්තාවෝ
කාන්තාවන්ගේ
ගොවියෙකු
සම්බා
ජනාධිපතිට
ගැල්ම
සාමයට
තැනකට
පදවි
අතුරුදන්වීම
අතුරුදන්වු
##වන්ගේ
කරන්නේ
අස්වන්නැයි
##ේක්ෂව
##ත්රා
සිම්බාබ්වේට
උණුසුමක්
111
110
ජලයේ
##වීගේ
පිටියටත්
ආසාධ
මොගඩි
මොසැම්බ
122
127
සේවකයන්ට
දියර
දියුණු
පුරන්
අවදානමේ
පිරිසිදු
135
138
කමිස
දූත
මැදියම්
දුම්ප
දුකට
දුගී
දුටු
සභා
කඩඉ
146
දිවයිනෙන්
##හිදී
පත්වන
##්රාස්
බලපායි
අවස්ථාවේ
වර්තා
සැමී
සැමරේ
මැරූ
තබාගෙන
බොරු
බොක්කේ
##ේද
##බැහි
මිලදීගැනීම
බලාපොරොත්තුවක
නගරයෙන්
##රිෆ්
සංවිධානයක්
259
2500
නියඟය
18ක්
උඩපන්දුවක්
##ුවෙකුගේ
සහයෝගී
නිලධාරියෙක්
000කට
කිඹු
අපේක්ෂිත
අපේක්ෂකයන්
සැලක
සැලසුමක්
කර්මාන්තකරුවන්
ගුවනේ
දෙනාගේ
යටවෙයි
හැව්ලොක්
මේස
සිංහයින්
වෙළදපොළට
කෘතිම
තුළදී
පාර්ලිමේන්තුවෙන්
අවසරය
දැමීම
පනවා
පරාජයත්
ග්රාමීය
හෝල්
මෙරටට
මෙරටදී
හාල්ම
ආධාරකරුවන්
ස්ථිර
ස්ථාපිත
හයිබ
හයිටි
රැස්වීමක්
පිතිකරුට
පිතිකරුගේ
##යුතු
ස්ථානවලට
ස්ථානයකට
අල්ලපු
කැරම්
224
මාෆ
මාෂ්
මාට්ටු
ආරම්භය
ආරම්භයේ
ව්යාපාරයට
ව්යාපාරිකයන්
වගාකරුවන්ට
ජයලලිතාගෙන්
ගතවන
මහේලගේ
ඇමෙරිකාවෙන්
ක්රීඩාංගනයේදී
සියල්ලන්ගේ
තමන්ට
ජර්මනියට
ගිලූණු
දෙදෙනකු
ගොඩනැගීමට
සම්මන්ත්ර
වැඩසටහනකදී
ලේකම්ගෙන්
තියයි
26ක්
##ිල්ලෙන්
කැනේ
##ිනාශක
සංගක්කාරට
වගකීමක්
වගකීම්
නිමි
නයිජිර
2000ක්
දසදෙනෙකු
විද්යාව
විද්යුත්
දඹුල්ලේදී
සමුදුන්
පෙළෙන
වෛද්යවරයා
වෛද්යවරු
වෛද්යවරුන්
බේරාගන්න
බේරාගැනීමේ
බේර
රත්නායක
##ිකරණයට
චැපල්
යවන්නන්ගේ
වැරදී
කම්කරුවන්
නිළිය
වෙනිසියුලා
ස්ටේන්
බැංකුවල
ප්රධානියාට
බහාලූ
බහමාස්
කන්දේ
ගමනට
පියාඹ
පරිඝ
පරික්ෂ
නියෝගය
පිහිටි
මධ්යස්ථානයේ
මධ්යස්ථානයට
මධ්යස්ථානයකට
තිදෙනෙක්
ළඟාවෙයි
##ෑමකින්
සුපර්ලීග්
282
වාරය
සතුන්
##ාගැනීම
පැතිරීමේ
නොදුන්
වෙනිසියුලාව
ආයෝජනයක්
ආයෝජකයින්
කුමරුට
බෝල්ට්ගේ
ඇලෙක්
එන්නතක්
රිච්
මනිලාල්
සිසුවියක්
සිසුවාට
නියෝජ්ය
ගහන්න
ස්වභාව
ස්වෛරී
ඉරානයේදී
ගොඩනැගිල්ලක
කඳවුරු
මගීන්ගේ
හයිද්රාබාද
294
හිසේ
##සිලන්ත
3000
බැරැක්
හිරේ
දෙවොල
මෙන්ඩිස්ට
මෙන්ඩිස්ගෙන්
ක්රීඩකයෙක්ට
ශ්රේණිගතකිර
බද්දට
විමසයි
සටන්කාමීන්ගේ
ගෝලය
සෙල්වම්
වරදක්
සමාගම්වලට
කෘෂිකර්මාන්ත
කෘෂිකාර්මික
කඳවුරට
කඳවුරක්
පාඩම
ආනයනකරුවන්
ගංවතුරේ
රජුට
හැසිරෙයි
ග්රහණයෙන්
ආගමනයේ
මට්ටම
ක්රිස්ගේල්
රෝහල්ගත
සෙබලෙකු
මිනිසාට
අලෙවිස
දේවස්ථානයක්
ධනංජයගේ
පැටව
කොමියුනිස්
අනාවරණයක්
රෝහලෙන්
දීර්ඝතම
34ක්
අවධානයට
සිල්ව
අමාත්යාංශයේ
වටිනාකමක්
උණුසුමෙන්
කණස්සල්ලෙන්
##ිකිරීමට
කියුබාවට
කියුබාවේ
පෙම්වතාට
ගුරුවරියට
මන්දිරයට
නියෝජිතයින්
උදාව
ජේබි
සීමාවන්
පුරවැසිය
වැරදිකරුවන්
ප්රවණතාවක්
සමූල
බලාගාරය
දරුවෙකුට
ව්යාපෘතියට
මයික්ර
වහන්සේගෙන්
ක්ෂේත්රය
##ගාමී
සටහනේ
අභ්යාවකාශයේ
සිල්වාට
යවන්නාට
සෙලාන්
තුලදී
ආසන්නයට
නිකුතුව
දික්වැල්ලට
ඩෙබී
දවාගත්
සමරන්න
සමරනායක
සිහිපත්
සැළැස්
සබ්මැරීනය
සුනඛයෙක්
ඇසුරුම්
ඇතැම්
ගවයින්
බෑෂ්
ලියයි
##පුරයේ
කැදවූ
ප්රතිඵලය
ප්රතිඵලයක්
හිරුට
දූපතේ
රේග
කැමැත්තෙන්
කෙන්යානු
8000
ටයිටන්
දළදා
දක්ෂතා
වේදිකාවේ
ඉදිකිරීම
තාක්ෂණයෙන්
කම්හලක්
චිත්රපටයක්
ඒකකයක්
තෑගි
සචිත්ර
අමාත්යවරයාට
අමාත්යවරයාගෙන්
බිළිඳිය
අපහසුතාව
කවුන්සිලය
ආපදා
කුරුණෑග
දණගැස්වූ
මුණගැ
මඩුලු
ලෙනේ
ලෙනෙන්
මිලියනය
මිලියනයක
2023
උද්ඝෝෂ
කස්ත්රෝගේ
පිවිසි
අත්යාවශ්ය
හැඩයි
විකිණීම
ගෘහස්ත
ඉස්ලාමීය
ඔසවයි
ඩිල්රුවන්
තෝමස්
මිතුරා
රූට්
සොරකම්
මව්බිමේ
සරසව
ස්කොට්ලන්තයට
උද්යෝග
##ers
පුතුට
නැවතුනු
හැකියි
තිදෙනෙකුට
නායයාම්
යුක්රේනය
කොමිසමේ
උත්සාහයක්
උත්සාහයක
බෙල්ජියම
බෙල්ජියමේ
බෙල්ජියමට
බිලියනයක
ඉතිහාසගතවූ
ශාන්තුවරයින්ගේ
දෑත්
දෑවැද්ද
සකස්
සංස්ථාවට
සූත්රයක්
අන්තවාදීන්
කුමරියගේ
මාධ්යවේදින
මාධ්යවේදීන්ට
කැරිබියන්
අධිවේගයේ
ප්රවේශපත්
නවදිල්ලිය
දෙපාර්තමේන්තුව
MH37
ආජන්ටිනා
දුපත්
ශාඛ
ශාස්ත
ශරීෆ්ට
ජනගහනය
ජනගහනයෙන්
කැඩී
ඇරඹුමේ
විරුද්ධව
පසුපසින්
පිහිටුවයි
පිහිටුවීමට
රයිඩර්ස්ට
ලැයිස්තුවෙන්
ආශ්රිත
ඇසිඩ්
ඔස්ට්ර
ඩිජිට
තැන්පත්
පෙන්නයි
ශාරීරික
බලාසිටි
නිවාඩු
විසදීමට
ලොක්කෙක්
ඇතුළුවීම
ජයග්රාහී
ක්රීඩාංගණයේදී
කිලෝවක්
නායයෑමකින්
නොහැකියි
බිලිඳා
සත්කාරකත්වය
එළිදකී
එළිදක්වයි
ශරීරය
ශිෂ්යාවක්
ආසියාකරයේ
ඕමාන
කථාවක්
තණති
තිස්සේ
පන්ලක්ෂයක්
ශර්මාට
ෆෝඩ්
ෆෝඞ්
##ප්ටොප්
එකිනෙ
අසාර්ථකයි
කිතුල්
දුම්වැට
වට්ටක්කා
වංචා
##චර්ච්
දැකපු
සාම්පූර්
අඩවියක්
කුකුළු
දියමන්තියක්
කෘමිනාශක
කැරලිකරුවන්ට
ආණ්ඩුකාරවරයා
වෘත්තීය
ලැප්ටොප්
සෆ්රාස්
අවුලක්
සමාරම්භක
නවීකරණයට
කැණීම්
පොන්ටින්
සියලුදෙන
කුළුබ
අත්හිටවූ
ගංඟාවකට
මොහොතකට
ගුණරත්න
මහමගදී
බුෂ්ගේ
සුසන්තිකා
විප්ලවයේ
ඔරලෝ
තාත්තා
මලින්ද
ලයන්ස්
සාපේක්ෂව
ෆින්ච්
ඉන්දියන්ස්ට
කටාරයට
නුවරඑළ
වර්ගීකරණය
බෙංගාල
සුබපැතුම්
පරිභෝජනයට
පෘතුගාලයේ
සෙනසුරු
කළමණාකරු
අජ්මාල්
ආකර්ශනය
ටැංක
ධූලි
නසාගනී
පටිගත
හියුස්ගේ
ශ්රීලංකා
වසඟයට
නිශාන්ත
සැහැල්ලූ
##ග්රහණය
මිෂෙල්
පිහිනුම්
ගිම්හාන
සංග්රහයක්
අධිරාජ්යයා
අනුශූරතාව
WhatsApp
චූදිත
තර්ස්ටන්
ත්රිකුණාම
තිරිඟු
දෛනික
මංකොල්ල
##හැවිරිදි
මැඬලීමට
නොනැව
ස්වාධ
දේපළ
පිලිබඳ
සීග්රයෙන්
නියුක්තිකයන්ගේ
හර්බජාන්
ඉසිපතන
ප්රාග්ධන
FCID
අකරතැබ්
අමිහිරි
ආලෝක
ඇබ්බැහි
උරුගුවේ
ගප්ටිල්
චරිත
චිබොක්
ටේලර්
ඩබ්ලිව්
මාගම්පුර
වසීම්
හතලිස්
##ානුකූල
ක්ලිෆර්ඩ්
වැඩිපුර
අත්ලාන්තික්
අගවිනිස
බිඳවැට
ක්රයිස්චර්ච්
සාන්තුවරයන්ගේ
නීත්යානුකූල
මොගඩිෂු
මොසැම්බික්
බහාලූම්
ස්වභාවික
කොමියුනිස්ට්
MH370
ඩිජිටල්
අකරතැබ්බ
03ක්
3කට
4කින්
59
5කට
52ක්
600ක්
7කින්
700ක්
92
9කට
90ක්
AT
AIA
ADB
CHO
Di
FI
G7
GS
Goo
LPL
SS
Sup
SMS
අං
අඩංග
අස්ථ
අකුණ
ඇය
ඇඩම්
ඉග
ඉර්
ඉගෙන
ඊය
උසට
එහ
එජ
එට්
ඔස්
ඔප්පු
ඕස්ට
කබ
කෲ
කත්
කැව
කම්බ
කට්ට
කුමක්
කීර්
කවු
කතක්
කෑග
කිව්
ගජ
ගැර
ගුරු
ගසයි
චා
චම්ප
චාන්
ජෙන
ජල්ල
ජිම්
ටිබ
ඩ්
ඩෙන්
ඩයින
ඩැම
තල්
තාර
තමා
තට්ටු
දත්
දන්න
දකින්න
දකින
දළුවලට
ධනාත්මක
ධජය
නාන
නායි
නජී
නෙම
නායික
නුදුර
නෂීඩ්
පිස
පතු
පවා
පතා
පුවක්
පේෂ
පදු
පෝල
බෞ
බාර
බුර
බුම
බියෙන්
බේස්
භාව
භීත
මට
මන්
මෙන්
මිර
මගේ
මනා
මදි
මත්ත
මෙල
මිතුරු
මෑන්
මක්කම
යම
යළ
යමින්
යුනිස්
රඹ
රෆ
රියා
රෝද
රමිත්
රිටි
රදව
රක්ෂිත
ලුව
ලියන
ලාරා
ලස්සන
වද
වෑ
වුව
වට්
වාත
වොර
වීමක්
වත්ත
වහා
වතාවක්
වෝන්
වොක්ස්
වචන
ශත
සය
සළ
සල්
සොව
සුණු
සවි
සපා
සන්ධ
සාර්ක්
හසු
හසී
හරාම්
ළදර
ළිඳ
ෆයි
##ෙදී
##ෙසි
##ෙයාර්
##යෙනුත්
##ිනය
##ිණිය
##ොඒ
##ොන්න
##හිට
##හුම
##හයෙන්
##හමාර
##හෙට්ටි
##ුඩා
##රන්
##රූප
##රීන්
##ගි
##ගො
##ගුවන්
##ගමන්
##ේන්ගේ
##සක
##සෙන්
##සන්ත
##සාට
##ටට
##ටැන
##ටොක්
##ලත්
##ලාන
##ලනය
##ලයෙන්
##ලන්න
##කයේ
##කාල
##කිමා
##කිමින්
##කසන්ත
##මස
##මූ
##නියා
##නියක්
##නාවට
##දෙන්න
##දැයි
##දායික
##පො
##පිල
##පෙන
##පෙයි
##පූර්
##තර්
##තැව
##තලේ
##තීන්
##තීර
##තීර්
##ැය
##ැං
##ැන්ඩ
##ඩය
##ඩයේ
##ඩියාව
##ඩිට
##ඩ්ඩ
##ඩ්රජන්
##ෝරයේ
##වයක්
##වුන
##ළග
##බේ
##බිට
##බීර
##බාබ්
##බේද
##බිනා
##බුල්ලා
##ණාභ
##ur
##ෘද්ධ
##ic
##id
##ash
##ace
##භව
##ඹුන්
##ඹකර
##ඹිනා
##0යි
##ෂන්
##ෂ්ර
##ෑමෙන්
##og
##oy
##ංසා
##ජාල
##ජීර
##ථසාධක
##6ක
##චනා
##ei
##ෆා
##ෆෝ
##ෆාන්
##ta
##MW
##ke
##FA
##EO
##GM
##න්බ
##න්වන්න
##ියත්
##්රකට
##්රබාද්
##්රටට
##්රදායික
##ාවා
##ාවරණය
##ස්සන්
##ස්තර
##ත්තට
##ත්නට
##ුවක
##ුවන
##ුවී
##ුවට්
##ුවාගෙන්
##ානායකට
##ිකල
##ිකෝ
##ිකයා
##ිකයින්
##ිකට්ටු
##ම්මක්
##ල්ප
##ල්සය
##ල්වැසිය
##ිරුව
##ිරෝද
##ුරේ
වෙස්
ප්රග
ප්රසාද
තරුවක්
තරබාර
##කුම
##ායා
කොල
කොට්ට
කොප්පු
##ිලිමත්
විම්බ
විවර
විවි
වික්ර
විහි
විවාදයක්
##ෙනෙක්
ඉන්දික
##ිවල
##ිව්ව
##ිවටන
##ිතර
##ිතා
##ිතල
##ිතම
##ිතැන
කරට
කරද්දී
##ගේට
##ිනිවලින්
##ිනිවා
අවියක්
අවවාද
අවගමනයක්
##ිසලා
##ිසිළ
වැලක්
වැසෙයි
සංඥ
සංක්ර
සංස්ක
##රණිතම
සමනය
සමාවක්
සමෘද්ධ
##ම්පරික
##ුවන්ගේ
##ණ්ඩය
දෙපිළ
##යාම
##යාත්
##යාමක්
##යාහු
නවතා
නවතිය
නවසිලන්ත
##සියි
ගැනුම්
ගැනීම්
##කටත්
##ිරික්ත
##ැරද
ඉන්දියාවම
ඉන්දියාවයි
ක්රීඩාල
##ාගනිමින්
ක්ලෝ
##ුසුම
අප්ර
අපිට
අපද්රව්ය
##ම්බේ
කළොත්
##ෙරා
##ලියක්
අනවශ්ය
පිති
පිබි
##තුගත
##තුන්ගේ
මහාධ
මහලෙන්
මහාමාර්ග
මහපොළ
සිඳ
සිළුව
##ායමට
##රාණික
ලෝකේ
කාඞ්
##ෙන්නැයි
ඇමරිකාවත්
ඇමරිකාවටත්
එක්සි
එක්වීම
##ුණා
##ස්සූ
පාකිස්ථානු
හෙද
හෙලි
පළඳී
##ව්වේ
කොටු
කොටුවෙයි
##තාවකට
වැඩ්ඩ
වැඩවර
වැඩබල
වැඩිකළ
වැඩිකිරීමට
සුප්රකට
##සුනේ
බලතල
බලශක්
##්රේස්
##ත්වේ
පැයක්
පැයට
පැත්ත
පැණි
පැකර්
ඡායරූප
කියා
කියන්න
පිටව
පිටවීම
පිටමං
පිටරට
ඡායාරූපය
204
20න්
20කට
##ෙහස
##ානයකට
කිරිමේ
##සීරා
##කරත්න
මුත්ත
මියයන
නිප
නිධ
නිපා
නිපන්දු
වෙළඳපල
අගුරු
##ාසි
සුහ
පුතුන්
##ළුෑ
වෙනසින්
පහල
පහක්
සැම්
##ක්කන්
අයිතියට
කැල
සිරවේ
සිරකරු
සිරමැද
##ාත්මික
රැළි
රැදව
##වේන්
##ෙල්ප්ස්
##තුවෙන්
නායකයින්ගේ
නායකයන්ට
වසරකින්
තීන්ත
##න්ටි
බංගලියන්
නොහ
නොදෙන
නොට්ර
නොගෙ
නොතී
නොකිරීමට
නොකරන්නැයි
බැස්ස
බැහැර
බැදුම්කර
බ්රෝ
බ්රෙක්
බ්රවෝ
ගැටල
ගැටළ
ගැටීමෙන්
ඉල්ලීමට
ස්ත්රී
විශුද්ධ
අලුත
අලාභ
##ාපය
විදුල
##ඩාම්
සිටී
ගියපු
පසුකරයි
පසුතැව
##දෙමින්
නැත්නම්
##විතාන
වේල්සය
පෙරෙ
කොදෙව්වෝ
අධීක්ෂ
සූමා
සිදත්
ඉහළින්
දිවින
දිවීමේ
දිවගොස්
භූමි
ත්රිරෝද
පොතේ
පොසිල
පොඩ්ඩ
මෝර
මෝගන්
ඉන්දුනිස
අමර
ප්රතිවාදී
ප්රතිපාදන
ලබාගෙන
ඉවත්වන
එකග
එකකට
එකකින්
පොලේ
පොලාඩ්
සියවස
ක්රියාවට
ක්රොඒ
එළිසබෙත්
නිවන
නිවීමට
යානයට
පිළිම
සංචිතවල
නැවෙන්
##බලැති
අහස
අහසට
ඉලක්කවලට
සේදී
ඉනිමෙන්
හදවත
ලෙකිමා
පන්දුවේ
පිපිරේ
මුද්ර
මුදුන
මුදාගත්
මුදාගැනීමට
රජකුම
##ට්ටියක්
ඇමතිවරයෙකු
හොරා
හොල්මන්
වගාවේ
මාලිංගත්
පීතර
පැමිණීමට
අසල්වැසිය
කුඩ
කුට්ටියක්
ශූරිය
ශූරියන්
තවම
හමුදාපති
පරාජිත
සටනෙන්
අත්හරින්න
පිරමී
පිරවුම්
තරුණයින්
වෙන්වූ
මෙහෙම
පෙලක්
පුද්ගලයකු
සාකච්ඡාව
අහිමිව
##ින්නන්
##ින්නැයි
##දුකාංග
##වැගන්
##යෙක්ට
බිලිවෙයි
නිෂ්පාදකයන්
ගිනිගත්
සංචාරකයන්ට
ලැබු
හැදු
109
106
103
ලක්වේ
ලක්වීමෙන්
##බිම්
ඇෆ්ගනිස්ථානයෙන්
දේශය
හිට්ලර්
ප්රබලම
ප්රබලයෙක්
ඕස්ට්රේලියානුවන්
රාජ්යයක්
ගොඩගැ
රැකගනී
රැකගැනීම
155
152
පිළිගැනීමක්
කලින්ම
දීලා
ප්රධානීන්ට
ප්රධානියෙක්
ප්රධානියාගෙන්
##ශ්මන්ත
කාන්තාවගේ
වටය
191
199
198
197
194
දරාගත
ගොවිප
ගොවිතැන
කරනවාද
2011
පරීක්ෂාවකට
ජනාධිපතිනියට
ඔබත්
ගැම්බියාවේ
සාමකාමී
සාමසාධක
ලංකාවේදී
තැනක
තැනූ
පදිකයන්
සංඛ්යාවක්
අතුරුදන්වී
එළවළුවලට
නොවැ
නොවෙයි
නොවැක්
කල්පිට
මොණ
මෙල්ල
මෙගී
174
සේවයෙන්
දියවීම
ලාඩන්ගේ
13ක
131
132
කමල්
දැරියකට
භාෂ
භාෂා
ලක්ෂයක
සෙළ
සෙවීමේ
මැදින්
ආනයනයේ
රොජර්
රොබට්
වේගපන්දුව
දුශ්මන්ත
අර්ථසාධක
ගින්නේ
සභාව
නීතිඥ
ලොතර
භාණ්ඩවලට
##ිකාවන්
145
143
142
මූඩි
අතහරී
අතිරික්ත
සමගාම
පත්කරයි
##්රාහ
උත්පාද
16කට
ICCයේ
බේරේ
සැමරුම
සැමුවෙල්
ගමන්කළ
ධුරයක්
සුරැක
සුරක්ෂිත
සුරතලා
මිලදීගැනීමට
පුහුණුකරුට
අරී
අරගල
පරදුවට
සමාජය
පොලීසියේ
25ක
250ක්
189
188
සභාපතිවරයෙක්
ජපානයේදී
නිලධාරී
තත්පර
ගෙට
ගෙවයි
අපේක්ෂාවක්
ඉතිර
කතාවේ
කතාවෙන
කර්මාන්තශාල
කර්මාන්තශාලාවක
කර්මාන්තශාලා
මව්රටට
##දේශයට
ප්රථමවරට
ඉක්මවා
බිරිද
දෝලනය
යටවේ
යටකරගෙන
යටිතල
ලොකුහෙට්ටි
ජයග්රහණ
කිහිපයයි
මේගන්
ලීසිං
211
214
යානයකින්
කෘමි
යුද්ධයක
යුද්ධයේදී
මෙරූන්
මතධාර
##ඞ්න්ගේ
අවසානය
තායිලන්තයට
ග්රෝන්
ශක්තිය
හෝරාව
##වුඞ්
හොංකො
පාරම්පරික
කෙරුණු
අඩුවීමේ
හයිඩ්රජන්
හෙලිවේ
කොදෙව්වන්ගේ
හොඳයි
තර්ජනයට
304
30කට
විදුහල්
මාර්ගයට
මාර්ගයෙන්
##ැම්බරයේදී
ස්ථානයේ
ස්ථානයක
රංගනගේ
අල්ලන්න
උඩුගුවන්
විපතට
ගොඩනගන්න
දුරකථනයෙන්
227
ධනව
සම්බාධකවලට
ව්යාපාරය
ව්යාපාරිකයන්ට
31ක්
තිසරගෙන්
අත්හිටුවීමට
සම්බන්ධයක්
සම්බන්ධතාවක්
අන්ගෙන්
අධිකරණයේදී
විකෘති
ක්රීඩාංගනය
පෙරළෙයි
සියල්ලන්ට
මෙහෙයුම්වල
පරීක්ෂණයෙන්
ජර්මනියෙන්
නියමයක්
නියමුවාට
දැනුම
##වීමේදී
පැවැත්වීමේ
සම්මතයි
270
272
##පිටින්
බැලස්ටික්
කඩාවැද
267
අංශයට
තුනේ
තුනකින්
මලාලා
විවාහයෙන්
පැනීමේ
මිදුණු
හතරදෙනෙකු
වර්ෂයේ
මළසිර
වැඩපිළිවෙළ
නිමවෙයි
නිමාලි
විනෝද
ක්රීඩිකාවකට
සංක්රමණිකයින්ට
නයිජර්
මෙක්සිකෝවට
මෙක්සිකෝවෙන්
2009
කාර්යාංශ
සිව්දෙනෙකු
දඹුල්ලෙන්
පුපුරණ
පුපුරායාම
සාගින්න
සාගරයට
##ර්මාගෙන්
සමුදීම
පෙළට
බේරෙන්න
බේරාගැනීමට
බේරාගැනේ
337
බෙදී
රත්න
අනුෂ්
අනුභව
දරුවන්ගේ
නෞකාවෙන්
##ියකගෙන්
වැළකේ
යේමනයේදී
කාශ්මීරය
සෝප
සෝයා
ලබාදෙයි
දෙන්නේ
විරෝධතාවට
විරෝධතාවලින්
විරෝධතාවලදී
නිර්මාණ
කම්කරු
තොටුපලේ
පත්වීම
නිළියක්
නිළවරණ
ස්ටොක්
ස්ටාක්
ස්ටොක්ස්
ස්ටුවට්
තේරී
ලාංකීය
කැළඹේ
අලූතින්
ගමනක්
පියාසර
##බාධිත
අනුපාතවල
පරිප්පු
අයවැයේ
අධිබලැති
උත්සවයක්
උත්සවයට
කේක්
තිදෙනා
යොදා
කලාපය
සමාගමකට
සමාගමකින්
ස්ථාවරවීමක්
286
284
28ක්
ප්රභූ
පැතිරීම
තහනමකට
ලැව්ගිනිවලින්
ගුණවර්ධන
නායකට
මඟින්
වතුරින්
##ඩෝස්
ප්රදේශ්
ආයෝජනය
ආයෝජකයන්ට
කුමරුගේ
හයිද්රබාද්
350
35ක්
කපලා
මන්දපෝ
මන්දගාමී
වායුගෝල
##ෝර්ක්
මෙහෙයුමට
මෙහෙයුමකින්
ගාන්ධිගෙන්
රාහුල්ගේ
ගෙන්වයි
තලය
මනෝ
විලක්
##ට්රො
ගහණය
##ැස්සන්
කැපේ
ස්විස්
ස්වදේශ
ස්වාමි
නිවාසයක්
සාමාජිකයෙකු
මහමුදු
##දිගට
දිගට
නැංවීමේ
විසඳුම්
යාත්රාවක
භාවිතයෙන්
හිසට
දෙවියන්
පිටුපායි
කැන්ගරු
කවුරු
ප්ලේන්
ප්රශ්ණ
අවශ්යතා
රෝගය
දරුවාගේ
කාර්යාලයේ
ග්රීසියට
තරුණියගේ
නිරුවත්ව
මෙවරත්
321
අළුබද
හයිය
හයදෙනෙකු
##ෑන්ඞ්
##්රිඩ්
වරදට
වරදකරු
කඳවුරුවල
පණපිටින්
##කයින්ගෙන්
පාසලකට
බිහිවෙයි
බිහිකළ
බිහිසුණු
පිරිමින්ට
ආනයනවලට
ගංවතුරට
සම්මේලනයට
සම්මේලනයෙන්
ගුට
ගිනස්
ගිනිත
ගිනිවලින්
ගිනිසිළ
රතුළුෑණු
නායකයන්ගෙන්
තුන්දෙනෙක්
සංකීර්ණයකට
5000ක්
##ක්ටික්
සෙබලූ
මත්ස්යයින්
මුරලිදර
දේවස්ථානය
4000ක්
පෞරාණික
පැටල
මර්කල්
සෙනෙහස
ප්රේක්ෂකයින්
නිව්යෝර්ක්
හේරත්ගෙන්
රෝහලක්
රෝහලකට
ඇන්ජලා
මරණයත්
##ෝස්ට්
අවධානමක්
සංශෝධන
සංශෝධනයට
අමාත්යාංශයට
අමාත්යාංශයෙන්
චැම්පියන්
දේශපාලනඥ
ප්රදර්ශන
විචාරක
ගොඩබසී
ගොඩබස්සවයි
අපේක්ෂකයා
අපේක්ෂකත්ව
අපේක්ෂකයාට
ගාල්ලට
ගාල්ලේදී
පාවාදීමට
හෝටලය
හෝටලයේ
ගුරුවරයෙක්
නියෝජිතයෙක්
කොංග්රසයට
ආණ්ඩුව
උදහස්
ඩයනා
තිලකරත්න
සම්පත
සම්පත්
ව්යාඝ්ර
මත්පෙති
අර්ජුනගෙන්
ඉන්දියානුවන්ට
ඇත්තේ
හඬවයි
##ිණියක්
මැඩගස්
බලධාරීන්ට
බලධාරීන්ගේ
ස්මිත්ට
දරුවෙකුගේ
සබ්මැරීන
ඇපකරුවන්
මයික්
සිද්ධිය
අමරිකාවේ
අභ්යවකාශයට
ක්ෂේත්රයට
විනිසුරුවරුන්
48ක්
අක්රමික
ඇඳුම
අභාවය
අභ්යාවකාශයට
ශ්රේෂ්ඨාධිකරණයට
බන්ධනාගාරයක්
අටේ
ගැබ්
ජූඩෝ
පිරික්
ශීතලෙන්
නැව්වලට
පුහුණුකරුවෙකු
සිදුකළේ
දේශසීමාවේදී
අකිලට
මුස්ලිම්වරුන්
##තන්යාහු
##බෑෂ්
සිහිවටන
වසංගතයට
වෙනසකට
නැගිට
මිනිසෙක්
ඇදවැටී
05ක
05ක්
ඇසුර
ගවයන්
ගවස්කාර්
පොළොන්න
සලිත
සලමින්
පෙරහුරුව
හිරුගේ
කිරුළට
ලැයිස්තුවේ
ලැයිස්තුගත
ගෞරවය
මන්ත්රීවරිය
චාරිකාවක්
නටරාජ
නටඹුන්
බර්නි
මාවෝ
මාවන්
මාවතට
රේගු
ශෝකය
හිස්බුල්ලා
නිවසක
පෙම්වතියගේ
යතුරුපැදිය
8000ක්
අංකයක්
ජාලය
ටයිසන්
ටයිටැන
පතලක
සහෝදරිය
වෙළඳුන්ට
වේදිකාව
ඉදිකිරීමට
හිමියන්ගේ
ඇලෙස්ට
අදියරකට
සහනාධාරය
ගෝවා
ගෝතමාලාවේ
දැක්වීමට
තාක්ෂණයේ
තැත
නළයක්
බ්ලු
මඩුළු
සාදය
සාදයක්
හසුවූ
##ශාන්ත්
තීන්දුවකට
අධිකාරියෙන්
මෙසීට
පකිස්තාන
පකිස්තානය
කරුණාරත්නට
කණගාටුව
අඟහරුගේ
ජනප්රියත්වය
මෙල්බන්
සර්ද
දිල්හාර
දිල්ශාන්
ලක්මාල්ට
##න්ඩර්ස්ට
බලපත්රය
මුහුණදීමට
සොහොයුරිය
සජීවීව
ව්යවසායකයන්
ව්යවසායකයින්
ඇණියක්
ඇණහිට
ඉස්ලාම්
බින්ලා
රූගත
වැසිකිළි
එළඹේ
රොබෝවරුන්
ගුරුසිංහට
ස්කොට්ලන්තය
කොළොම්බියා
දීමනා
දහසකට
බයකරමින්
මොරටුව
වහාබ්
සවිකර
##මෝහන්
##පාතයක්
##alax
##alog
ප්රජාවට
විනිමයක්
පිහිණුම්
නිපදවන
නිපදවයි
සිරදඩුව
බිග්බෑෂ්
උපරිමයට
ලෙබනන
සීමාවේදී
හුවමාරුවක
ගිනිකඳු
ගිනිකෙළි
නාමයෝජනා
කොමිසමට
ක්ලින්ටන්ගේ
මහමැතිවරණයෙන්
ජැමෙයිකා
බැග්ඩෑඞ්
කෙටුම්පතක්
අඹුස
ඇල්ජීර
එලෙස
එලිසබෙත්
කන්යා
කන්කසන්ත
ජොක
බදුන
හිංසනයට
කුමන්ත්රණයක්
කුමන්ත්රණයට
මූලස්ථානය
විකුණන
විකුණයි
නෞකාවකින්
ගුණතිලකට
සහෝදරයින්ගේ
කරුණාරත්නගෙන්
අබුඩා
කීඩෑ
නාගසා
පානදුර
ප්රසන්න
ප්රවීන
ප්රේෂණවල
වෙළඳසැ
ක්රීඩකයකුට
අභියාචනය
ව්යවස්ථා
බස්නාහිරට
ව්යාපෘතියකට
චෝදනාවලින්
බෙදාහැර
ශ්රමිකයින්ට
බහුතරය
පිහිටෙන්
ප්රේක්ෂකාගාරය
පිරිවැටුමක්
දෙපාර්තමේන්තුවේ
ඇත්ද
ලෝඩ්ස්
වුණා
කාම්බෝජයේ
ඇරඹුමේම
අනතුරුවලින්
උපන්දිනය
අන්තිම
ඔක්තෝම්බරයේ
මහරැජින
උවදුරෙන්
දයාසිරිගෙන්
මැකලම්ගෙන්
ආශ්රිතව
ඇවිලේ
තැන්පතු
මඩින්න
විගමන
ගුවන්යානා
අලීගේ
පැරීසියට
විසදන්න
විකාශය
නායයෑම්
තිලංගට
හඳුන්වාදෙන
හඳුන්වාදීමට
කප්පාදුවක්
කිඹුලන්
නෙදර්ලන්තයේ
ආකාරය
තණතීර
බුලට්
සක්රීය
දෙලක්ෂය
පැදවූ
ප්රතිඥාවක්
හොල්ලයි
වර්ණවත්
ඉතියෝපියාවේ
ඉතියෝපියානු
නිමාවන
අනුග්රාහ
අනුග්රහය
ඩිවිලියර්ස්ගේ
අනාගතය
ජනනේන්ද්රය
කසක
ග්ලැ
ටික්ටොක්
ධ්රැවයේ
ඵලද
ඵලදායී
සවාරිය
සවාරියේ
රැළියක
බ්රැඩ්මන්
බ්රැඩ්බි
වාහනය
ඉරිදා
කුළුණ
කුකුල්
අත්හැරීමට
මංගල්යයක්
සන්ධානයට
ගබඩාවක
සැත්කමකින්
මන්නාරම
කරුණානිධිගේ
කේන්ති
දිරිමත්
ලෝලීන්
ලෝලීන්ට
සමීක්ෂණයකින්
බලඇණියක්
බෝට්ටුවක
පොන්ටින්ට
සියලුම
කෝටිපතිය
නිරතවූ
සම්මුතිය
ගුණරත්නට
පන්ජාබය
ලිපිගො
ධර්මසේනගේ
සුසන්තික
එන්ජිම
ජැක්සන්
නෙතන්යාහු
නාලන්ද
පරණවිතාන
යෑමට
ෆිච්
ෆීජී
##ශීල
පිටකොටුවේ
පිටකොටුවෙන්
නොහොබිනා
නොහොඹිනා
දේවිගේ
මාලාවකින්
භූකම්පනයක්
හිමපතනයක්
දඩයමට
විපර්යාසයට
පෙන්ටගනය
රත්තරං
වාරිකය
කපූර්ගේ
දෙපිලටම
යතුරුපැදියක්
බහුතරයක්
උගන්ඩාවේ
ඛේදවාචකය
අඳුරේ
ඇඹුල්
ගබ්ස
යෞ
ෂෙල්ස්
සෝදිසි
සපිරේ
##සොෆ්ට්
##hone
ප්රමාණයක්
ශ්රීදේවි
ක්ලාක්
පුත්තලම
##ාධාරණ
ත්රිපුද්ගල
කොරෝනාවලින්
අඩස්සියට
සිසුවෙකුට
අනුගාමිකයෙකු
රිදියෙන්
ජාවාරම්කරුවන්
ජෙරුසෙලම
යෝග්යතාව
ඉංග්රීසි
ගනුදෙනු
ආධිපත්ය
තල්ලුවක්
තටාකාංග
දොඹකර
නදීකා
පිස්ටෝරියස්ට
බණ්ඩාර
රඳවා
රාවණ
ශානක
සයුරේ
වෙළෙඳ
අපරාජිත
සුපිරිම
නොඑන
සංගණනයක්
සොයිසා
සොල්දාදුවන්
ඉලෙක්ට්රො
සේනානායක
හොයන්න
තරුණියකගේ
ලක්ෂ්මන්
මාධ්යවේදියා
මුල්තැනට
නොසැලකිල්ල
පසමිතුරු
බහරේන්
රහසේම
පරිත්යාගයක්
කෞශාල්
සුළගක්
ජෙරුසලමේ
නොලැබුණු
මිහිපිටින්
FBI
Huaw
අබාධයකට
ඉස්සර
ඉගැන්වූ
උදරයෙන්
එටිසලා
ඔටුන්න
කථානායක
කදවුර
ඩුප්ල
තාමත්
මෘදුකාංග
මංජුල
ෂින්සෝ
සාජා
සදාම්
හුස්ම
නවාතැන
මැක්ස්වෙල්
මුලින්ම
නොපැවැත්වෙන
විශ්ලේෂ
දික්කසාද
සීක්කුගේ
පොලිතින්
වරප්රසාද
තුන්ලක්ෂයකට
දුම්පානය
සහයෝගීතා
හාල්මැස්සන්
පියාඹන
පරිඝන
හයිද්රාබාදය
අලෙවිසැල්
ටයිටන්ස්
නායයාම්වලින්
සියලුදෙනා
ඔරලෝසු
සෙනසුරුගේ
ස්වාධීන
FCIDයට
ATM
CHOGM
FIFA
GSP
Google
SSC
Super
අඩංගු
ඉර්ෆාන්
ඔස්කා
චාල්ස්
ජල්ලිකට්ටු
ඩ්වේන්
ඩෙන්මාර්
නජීබ්
නෙමෙයි
නුදුරේදීම
පදුකෝ
බුම්රා
භාවය
රදවාගෙන
වෑයම
වොක්ස්වැගන්
##ණාභරණ
විම්බල්
විවිධ
එක්සිම්
වැඩවරදී
වැඩබලන
මුත්තයියා
සිරමැදිර
නොට්රඩාම්
නොතීසි
විශුද්ධිකරණ
විදුලිසැර
අධීක්ෂණයට
ක්රොඒෂ
අතිරික්තයක්
කර්මාන්තශාලාවක්
මෙරූන්ස්
ගිනිසිළුව
ටයිටැනික්
##alaxy
එලෙසමයි
කන්කසන්තුරේ
අබුඩාබි
Huawei
එටිසලාට්
01
2කට
3ට
49ක්
5කින්
58ක්
63ක්
67ක
84
9ක
93
AB
App
Bl
Br
Ben
BMW
DR
FM
Galaxy
Ko
My
Pu
Pa
Ple
Te
Tro
du
de
whats
අච
අංග
අම්ප
අලිය
අයින්
අන්ධ
අයෙකුට
අකම
අතින
අසුන
අෂ්ර
අසුනේ
ආදි
ආවේ
ආලේ
ආච්චි
ආරුග
ආක්ටික්
ඇහ
ඇඩ
ඇදී
ඇබට්
ඈත්ව
ඉන්ට
ඉස්ත
ඉර්මා
ඉංජ
ඉබෝලා
ඊමේ
ඊසාන
උගන්වයි
ඍණ
ඍතු
එතැන
ඒම
ඒජන්
ඕවාදී
කද
කඳ
කඟ
කිල
කතර
කෙස්
කන්ඩ
ඛෙ
ග්
ගයි
ගම්
ගර්
ගරු
ගහන
ගතක
ගිල්
ගරි
ගමනා
ගයාන
ගාලූ
ගායික
ග්රාහ
ඝෝ
චෙස්
චාප
ජි
ජෙර
ජවන
ජස්ට
ජිහ
ජමාල්
ජන්ම
ටෝ
ටෙන්
ටර්
ටැන්
ටොක්
ටැක්
ටාබ
ටෙන්ඩුල්කාර්
ටවර්
ටි්ර
ටාජ්
ඩෙනිස්
ඩැහැ
තෘ
තුවක්
දන
දාන
දල්
දිස
දවා
දූර
දීමෙන්
දෙන්නා
ද්රව
දාලා
දුනු
දොඩ
දල්ලට
ධෝනි
නද
නඟ
නන්ද
නිස
නාත්
නමට
නෙට්
නසීර්
නොරො
නිතර
පප
පං
පතුර
පලි
පෑම්
පතිර
පෝල්
පෙල්ප්ස්
බූ
බක්
බත්
බල්
බුද
බිස්
බල්ල
බස්ස
බන්දු
බයක
බහල
බඳව
බෑග
භි
භී
භානු
භාග
භෝජන
මින්
මානු
මාද
මාම
මාප
මසක්
මාට
මොට
මතින්
මෘත
මැනි
මදුරු
යහ
යෝජ
යුන
යාන්ත
යැයි
යෑම
රා
රී
රළ
රං
රිම
රැව
රාන්
රාත්
රමා
රේස්
රකී
රබා
රවට
රත්වෙයි
රෂීඩ්
රහනේ
ලු
ලීම
ලංගම
වධ
වල්
වින්
වාද
වයින්
ව්ල
වනයේ
වලක්
වජ්
වඳුර
වන්නැයි
වවුන
ශ්ව
ශිකර්
ශර්මාගෙන්
ෂිම
ෂියා
ෂරීෆ්
ෂෙව
ෂරිෆ්
සික
සින්
සාය
සැන
සරු
සතුර
සදී
සිරි
සෙස්
සෝන
සවු
සපය
සලක
සලයි
හග
හී
හඩ
හෘ
හකු
හෙර
හුරු
හයකට
හතක
හජ්
හඹා
හසුන
හලාව
හවුල
ෆෙ
ෆේ
ෆ්ර
ෆුල්
ෆාබ
##ෙලි
##ෙඩි
##ෙමින්
##ෙසූ
##යමට
##යන්තය
##ිධ
##ික්ක
##ිදා
##ිච්
##ිච්චි
##ොම
##ොයින්
##ොසොෆ්ට්
##හසේ
##හලේ
##හානි
##ුයි
##ුතු
##රූ
##රුව
##රුද
##රාග
##රුවේ
##රටින්
##රැස්
##ායට
##ාතුර
##ාණ්ඩ
##ාකර
##ගම්
##ගයෙන්
##ගිරි
##ගතු
##ගනි
##ගමන
##ගින්නේ
##ේට්
##ේසන්
##සබ
##සයේ
##සයක්
##සිස්
##සස්ට
##සීමේ
##සීමෙන්
##සිටි
##ටියක
##ටියු
##්භ
##්ම්බ
##ලඟ
##ලයින්
##ලීමේ
##කඳ
##කෑ
##කාව
##කස්
##කිරි
##කාර්
##කාවක්
##කත්වය
##කැන්
##කයින්ගේ
##මාග
##මාන්
##මාවේ
##මලාන
##නෙ
##නො
##නස්
##නාල
##නියාවේ
##නර්ගේ
##නිනෝ
##නිරුව
##දැ
##දායක
##දානයේ
##දහස
##දගහ
##දහසක්
##ීස්
##ීව්
##ීඩ්
##පස්
##පෙන්
##පනය
##පැන
##පාර්
##පායි
##තූ
##තෙන්
##තාන්
##තමින්
##තානයට
##ැදී
##ැමි
##ැස්ටික්
##ැල්ලේ
##ඩර
##ඩී
##ඩියෝ
##ඩියානු
##ඩවාන්
##ෝගේ
##ෝවා
##ෝලේ
##ෝරය
##වක
##වස්
##වානු
##වෙක්
##වළු
##වැටි
##වීන්
##වෙල
##වීමකින්
##වද්දී
##වපොර
##ළල
##ළූණු
##ධු
##ධිර
##ූමා
##බූ
##බස්
##බත්
##බිල
##බදු
##බේන්
##බූල්
##ණවලින්
##ct
##ssi
##ib
##im
##app
##භාර
##ශංක
##ශප්
##ෂීම්
##ෂ්යා
##ෂයර්
##ou
##on
##om
##ජයක්
##ජයට
##ජසීරා
##ඟි
##ඟ්
##3යි
##gh
##8යි
##ෆ්ල
##ෆුල්
##boo
##AL
##OT
##FC
##අපනය
##න්ය
##න්වා
##ියාන
##ියකු
##ක්රා
##tel
##්රාට
##්රතාවය
##යිජ
##යිටර්
##ාවූ
##ත්තිය
##ුවයි
##ුවල්
##ුවීම
##ුවීමට
##ානිට
##ානුවාට
##ිකම
##ිකඩ
##ිකාන්ත්
##ල්ස්ට
##ල්තාන්
##ාරු
##ාරේ
##ාරාම
##ාරුක්
##ාරෝප
##න්දි
##න්දර
##න්දුවේ
##ර්න්
##ර්මය
##ර්ණාභරණ
##ීමකට
##තිබූ
වෙහ
වෙත්ත
##ංකාර
##ංකාවේ
ප්රාදේශ
ප්රමි
ප්රයත්
ප්රමාණ
ප්රයෝජ
ප්රවේග
ප්රබේද
##ින්ස්
##කුට්
##කුළු
##ායන
##ායත
කොස්
කොහු
කොණ්ඩය
##ිලු
##ිලියේ
##ංගා
විදි
වික්රම
විසුණු
විජේ
විස්තර
ශ්රීසාන්
ශ්රීශාන්ත්
##ෙනස්
##ුද්රව්ය
##ිවත
##ිවර්ධ
##ිවෙල
කරවල
කරදර
කරලියට
කරගැනේ
##නයන්
##ැනියා
##ිටිය
##ිටියන්ට
##ගේද
##රුන්ට
##ාලේ
##ාලියෙක්
##ිනුත්
ඇමසෝන්
ඇමේසන්
අවු
අවට
අවධ
අවකාශ
අවුල්
##ිසෝ
වැවිලි
##ිස්බේන්
තරඟවල
##්රිකාවක්
##ිමකින්
##ිමේ
##නාත්
##නාඩෝ
##නාස්ටික්
සංහාර
සංදේශ
සංසර්
සංක්රා
සමා
සමවෙයි
සමස්ථ
ඇමරිකන්
ඇමරිකානුවෙකු
##්ඩ්
##ක්ෂණයට
##ණ්ඩු
##ණ්ඩයේ
දෙව්
දෙරට
දෙමුහ
##යාගෙන්
##ුමේ
##සියෙන්
ගැනීමෙන්
##න්නක්
##න්නොත්
##ාදි
##ාදු
##ාදුන්
අදට
අදහස
අද්භ
මිලාන්
##ිරිගෙ
ක්රීම්
##ාගොස්
වෙයිලූ
##ළිඳු
##ාර්ට
##ාර්ට්
##ලන්තයෙන්
ක්ල
ජයන්
ජයවර්ධන
කරයිද
ප්රහාරවල
කොරියානුවන්
##යන්ගෙන්
##ේශ්
##මුණි
අපචාර
##ම්බර
##ම්බෝ
කළහ
කළා
තරගවලින්
##කිස්ස
අනෙක්
##ොවූ
##ොවිච්
##ෝකථ
පිට්ට
පිම්ම
පිපි
පිම්මක්
##ාන්ති
##ාන්යට
##ාන්ඩ්
මහතා
මහතිර
මහකන්න
මහතීර්
සික්
සිඞ්
මැසි
මැන්ඩ
මැකොන්
මැසෙන්
මැස්සන්
##ාමය
කණ්ඩයමට
ජනේ
ජනපද
ලෝකයෙන්
##ුන්ගේ
කාෂ්
කාණ්ඩයේ
එක්කල
එක්විය
##වාතමාලාවේ
##ුණුවන්
##ුණොත්
##ාතනික
හෙළුෑ
පළදී
පළපුර
##000
කණ්ඩායමත්
වැඩක
බලු
බලයක්
බලපා
බලවේග
බලගන්වයි
බලගතු
හමුවන්න
ගුවන්ගත
පැදිය
පැරණිතම
කියු
කියලා
කියද්දී
පිටත
පිටුවක්
පිටරටින්
20ක
209
කිරිම
කිරුම්
##සීන්ට
මුශ්
මුබාර
මුළුම
##ියාත්
වසන්ත
නින්ද
නිදා
නිධි
නිශ්
නිපන්දුවක්
අත්වන
අත්බෝ
අත්නො
අගයයි
##යින්ම
වීදුර
##ාසන්න
සුල්තාන්
සුන්දර
කුසගින්නේ
පුන
පුත්
##්ගී
පරමා
පරිහ
පරද්ද
වෙනම
පහක
සැඩ
සැපත්
සැමන්
සැන්ඩර්ස්ට
අයිතීන්
කැත
සිරිනිවා
සිරිවර්ධ
රැද
රැලි
රැජි
රැයකින්
ලංකාවටත්
##ප්ති
##වික්
නායකවරයා
නායකයෙකුට
වසරේ
තීන්දු
තීරයේ
තීරයේදී
තීන්දුවට
##න්ටත්
තරඟයක
වනයි
වනතුරු
නොදී
නොගැ
නොයන
නොකිරීම
නොකෙරේ
නොතිබූ
බැලේ
බ්රෙන්ඩ
බ්රිටි
බ්රිස්බේන්
ඉල්ලුම
ස්න
ස්මාර
විශේ
බෝල
බෝනි
බෝ්ම්බ
##ුරුට
අලින්
වැටක්
වැටීමට
වැටලීම
වැටුණේ
##ඩ්ට
දේවීගේ
##ැබි
අතරමග
විදීමේ
ඇරඹුණු
දිනකින්
දිනකදී
කොරියාවටත්
දිළිඳු
කටින්
කටුක
බංග්ලාදේශ්
ගනීද
නවසීලන්තයේදී
පසුකර
මැතිසබ
නැමූ
##මාණයක්
වාස්ට
ආරවුල
ජීප්
ජීවන්
##දාහ
වේල
වේල්ල
වේල්ලක්
පෙරල
ඉදිවන
අධිවෙ
##ික්මුණු
##ධානයක්
බිද
ඉහළින්ම
ඉහළයාමක්
කම්පනයට
තහනමෙන්
##හැම්
භූම
සීරුවෙන්
##ීම්වල
අමෙරික
අමතමින්
අමුද්රව්ය
ප්රතිඅපනය
රටක
රටකට
රටකදී
ඉවත්වන්නැයි
තරඟාවලියක
වර්ධනයේ
එකදිගට
සැරිසැර
##ෝජනයට
රාජස්ථානය
##ග්ස්
සියවන
දෙකම
දෙකඩ
දෙකේම
බ්රිතාන්යට
ක්රෙඩි
##ුනොත්
ජීවිතයට
ජීවිතාරක්ෂක
එළදෙන
නිවන්න
නිවෙස්
නිවේද
සාක්ක
##ත්තෙන්
##ත්තෙක්
##ත්තාරාම
කුසලානේ
ත්රස්තයෙකු
ත්රස්තයින්ට
ත්රස්තයන්ගේ
ත්රස්තයින්ගේ
යානාවලට
පිළිර
සංචිතයක්
නැවියන්
##ේෂන්
අහඹු
අහසින්
වාර්තාවට
පුදයි
අයද
අයත්
අයදුම්
අයියාට
අයුතු
සේදෙයි
උපයයි
උපාලි
උපවාස
උපකරණය
උපනායක
හදියක්
හදුනා
වරම
ගොන්
පිපිරීමට
පිපිරුම්
පිපිරුමක්
පිපිරවීම
මුදාගනී
මුදාගැනීමේ
මුදාගැනේ
කණ්ඩායමටත්
රජවරුන්
රජීව්
අඩවිය
අඩනිරුව
සමුගන්න
ඇමතිවරුන්
හිමාල
හිමාලයේ
විරෝධීන්ට
කෝවිල
වගාවෙන්
පැමිණෙන්නැයි
අසංක
අසිත
අසනී
අසුන්
අසාද්
අසත්ය
අසර්බ
අසැබි
කුහ
කුක්ට
කුඹුර
ශූරී
ශූරයාට
පරාජයන්
අත්හරිය
රෝම
රෝහින්ග්යා
##මන්ඩු
තරුණයෙකුගේ
පහරෙන්
පහරකින්
පහරදෙන
සාකච්ජ
සාකච්ජා
වෙන්කර
වෙන්කළ
වෙන්වීම
මෙහෙවර
මෙහෙමත්
මණ්ඩලයේදී
ආර්ය
පුද්ගලික
##ටර්ස්
##වැඩියාව
##වැළල
නිෂ්පාදනයක්
නිෂ්පාදනාගාර
විශේෂාංග
ජාතීන්
ජාතිකයන්ට
සංචාරකයින්ට
ලැබ්රෝ
හැම
හැඟ
හැඬ
108
107
විදේශිකයෙකු
ලක්වන
රුසියානුවන්
රුධිර
##කාරා
ඇෆ්ගනිස්ථානයේදී
##ිබිස්
නිරෝෂ
ප්රබලයෙකු
ගොඩද
ගොඩබැ
නිදැල්ලේ
රැකවල්
දැවැන්තම
156
15කට
15කින්
##ංහි
##ංහයි
පිළිගන්න
කාලිස්
කාලයකට
කාලසීම
කලාව
කලොත්
තුති
##මනින්
##ාගාරයේදී
කාන්තාවකගේ
වටේ
සොයාගිය
195
පැරග
හේතුවූ
දරිද
අපනයනයේ
##කිල්ලක්
විසිවෙයි
විසදුම්
විසුරුව
ගැටුමකට
ගැටුමේදී
ජනාධිපතිගෙන්
ජනාධිපතිනිය
ආදර
ගැස්සූ
පාලම්
පාලනයෙන්
පාලනයකට
දුම්රියෙන්
තැනීමට
පදික
සීමිත
සීමාවට
අන්තයේ
අන්තවාදය
අන්තෝනි
මාසය
##මාරුත
එල්නිනෝ
යනු
මහාබ
##වාදෙයි
ජාතිකයා
ජාතිකයෙකුට
##ලූන්
නොවන්න
නොවදින
නොවන්නැයි
නොවෙනස්
පියෙකු
පියස්ස
පියෙක්
පියාගෙන්
11ක
116
ජලජ
ජලයට
ජලජී
ජලකඳ
මැතිව්ස්ගෙන්
කල්යයි
කල්දැ
මොක
මොනවා
මරණයක්
##ුක්වැල්ල
125
126
මෙය
මෙම
මෙච්ච
17ක
17න්
17කට
170ක්
සේවිකාවක්
දියවැඩියාව
##දෙනාගේ
පුරෝකථ
ලාස්
ලාඞ්න්ගේ
හමුවු
හමුවීම
පිරිසකගේ
පිරිසකගෙන්
133
##බඳුනේ
එනකොට
කමාන්
කමලා
දූලි
මැදිව
මැදදී
මැදිරි
මැදිවූ
රොක්
රොයිටර්
වේගයකින්
දුන්නු
අර්මා
අර්ඩවාන්
##ානිගේ
##වන්නේ
කඩයි
144
14කට
ඇතිවු
දෙදෙනෙකුත්
දිවයිනක්
මධුර
මධුස
දුරේක්ෂ
පිලිපීනයෙන්
පත්කළ
පාසල්වලට
භාරයේ
භාරවෙයි
භාරගැනීමට
භාරදෙයි
මරලා
මරදගහ
161
160
168
දඩයම
ICCයට
මාර්ටින්
හරින්න
හරිමින්
සැමියාගෙන්
මධ්යස්ථ
මැරෙන්න
මැරීන්
ඉරාකයට
මිනුම්
යාමකින්
ගමන්වලට
බොන
බොද
බොන්න
බොස්ටන්
සුර්ය
##ේෂී
විරෝධතාකරුවන්ගේ
##හලක
##නල්ඩ්
පරදියි
කැඳවා
ඉන්දුනීසියාවේදී
ගෙනෙන
ගෙනගිය
ගෙනදුන්
##රිට්
සමාජයේ
සමාජයක
සමාජජාල
චෝදනාවලට
සංවිධානාත්මක
දිල්ලියෙන්
185
ශූරතාවට
ශූරතාවයේ
සභාපතිගෙන්
සභාපතිවරයාගේ
අනුමත
පහරදිය
පහරදීමේ
පහරදීමකින්
##ැන්සිස්
සිසු
ඉදිරිප
ගෙඩි
ගෙවීම
ගෙවුම්
ගෙඩිය
විනාඩි
කතාවට
සහල්වලට
අපනයනකරුවන්
100ට
100ක
ඉක්මවූ
ඉක්මවලා
ගේට්ස්
දඬුවමට
දෙනෙ
දෙනවා
යටට
යටකළ
කුසලානයත්
ලොකුළූණු
පාර්ලිමේ
මේක
ලීක්ස්
215
21ක
213
සිංහයින්ට
බිරිඳගෙන්
අර්බුදයේ
##මයජනක
##ෝලීන්
##තිකාවක්
වාහනවලට
පරාජයකින්
අඩුයි
මීළග
මීලඟ
මාරුවක්
නිෂ්පාදනවලට
ශක්ති
අගනුවරදී
##ගමදී
බ්රසීලයෙන්
ලිංගිකත්වය
පාරෙන්
පාරමී
කෙල්ල
කෙළි
අඩුවෙලා
කමිටුවෙන්
230
236
2300
හයිපර්
හැරීම
හැරිස්
හැරීමේ
රැස්වීමේදී
305
මාර්ගෝප
කතාකරන්න
තනතුරු
උත්සහ
අල්ලා
අල්ලන
අල්ලාගනී
පැරදවූ
පැරදුනත්
ගණනාවක්
225
220
කඳුකරයේ
බිමක
මාක්
මාළි
මාෂියා
කාලගුණයක්
ව්යාපාරයේ
31කට
ඇදිරි
ඇදුම්
බීට්ර
කැමරා
වගාබිම්
අත්හිටුවීමේ
24ක
240
අන්කාරා
අපරාධයක්
අධිකරණයක්
ඡන්දදායක
මගට
මවිතකළ
විකල්ප
අමාත්යංශ
ක්රීඩාංගන
ක්රීඩාංගනයක්
මෙහෙයුම්වලින්
පරීක්ෂණයට
පරීක්ෂණාගාරය
මහබැංකුවට
වෛරසයේ
50ක
50කට
ගිලන්
ලන්ඩනය
ලන්ඩනයේදී
සංක්රමණිකයන්ගේ
නියමුවර
නිකේත
##නේෂ්
දෙදෙනක්
ගොඩනැගූ
යේමනය
ළමයෙකු
ළමයෙක්
271
276
273
දහය
දහර
දහයේ
දහසේ
දහමට
##ස්කස්
නොසැලක
බැලීමට
බැලැස්ටික්
කඩාවැදී
265
268
264
අංශය
අංශවල
පෙන්වන
කළඹපු
කළඹවයි
සරණාගතයින්ට
සරණාගතයන්ට
සරණාගතභාවය
පැනගිය
පැනවීමේ
සුදුසුම
හතරෙන්
##ිලිප්
සිදුකර
හිඟයට
හිඟයෙන්
ඇගවීමේ
කන්නේ
ජෝශප්
විශිෂ්ඨයා
ක්රීඩිකාවෝ
දසාවක්
සිංගෙන්
සිව්දින
කාර්තික්
කාර්තුවේදී
තාඩ්
##ර්මයක්
සමුද්ර
එකඟතාවක
පෙළකට
වෛද්යවරයාගේ
බේරාග
බේරාගනී
330
338
අතටම
බෙද
බෙදයි
රත්මලාන
සත්ය
සත්ත්ව
අනුකම්ප
බෝල්ට්ට
චැඩ්
පසුවත්
යවන්නෙකුට
##ොක්සයි
වැරැද්ද
පිත්තේ
දෙන්නැයි
විරෝධතාවලට
අල්ජසීරා
කම්කරුවන්ට
පත්වේ
නිළියගේ
පාකිස්තානයේදී
බැංකුවලින්
දූෂණයකර
ගුරුවරුන්
බහුල
සම්මුඛ
කැළඹුණු
අලූබඳුන
කාන්තාවන්ගෙන්
කොල්කටාව
රහිත
##දර්ශනයට
ජනතාවගෙන්
පරිදි
අයවැයක්
නයිජීරියාව
නියෝගයෙන්
##ෝරන්ස්
පිහියෙන්
ක්රීඩකයින්ගෙන්
සංචාරයත්
අධිවේගේ
උත්සවයේ
උත්සවයකට
කඩාවැටීම
කඩාවැටෙයි
තිබ්බ
මුරයක්
මුරලිට
##පැල්
දිනූදා
##දරව්වක්
කැලිෆෝනියාවට
ගිණික
මව්පියන්
වාරි
සතුකර
සතුන්ගේ
ප්රභාකර
කාබූල්
පැතිරෙන
පැතිරෙයි
නොදත්
නොදැන
නොදන්වා
දේශසීමාවට
අන්තර්වාර
මාරුතයකින්
ගුණාත්මක
මඟුල්
වතුරේ
ප්රදේශය
ප්රදේශයක්
ප්රදේශවල
ගැනීමේදී
සමුළුවෙන්
කුමරුගෙන්
35කට
3500ක
ඇලන්
එන්නේ
එන්නත්
කපිල්
##සිරිට
විවේචන
බංගලාදේශයේ
දිවුරුම්දීම
අයර්ලන්තයේ
ගේල්ට
ගේල්ගෙන්
ධාවන්
ධාවනයේ
ධාවනයට
මනින්න
විලේ
පුද්ගලයාගෙන්
සිසුවියකගෙන්
##තුමිය
ස්වාම
ස්වර්ණාභරණ
නිවාසයක
සමුළුවකට
විපක්ෂයෙන්
කැමරාවක්
කැමරූන්
ගොඩනැගිල්ලේ
ගොඩනැගිල්ලකින්
සාමාජිකයා
සයිප්ර
සයිබීර
##බෝල්
මහමොළ
දිගුදුර
නැංවීම
##ච්චෝලේ
විසඳීමට
විසඳුනේ
පළමුවන
නොසිතු
අලූත්ම
ගුවන්තොටුපලක
තානාපතිවරයා
293
298
ඇවිදින
කෙරෙහි
භාවිතා
භාවිතයේ
සුවය
හිසක්
##ේනියාවේ
හුවමාරුවේ
හතුරුසිංහගේ
හතුරුසිංහගෙන්
ගම්මානයක
නාවිකයන්
සන්නාම
දෙවසර
දෙවැනියා
පිටුපසට
රුසියාවේදී
වගාවන්
වගාවලට
ප්ලෙස
සංකේත
ප්රමාදයි
ප්රශ්නය
පිතිකරුවන්ගෙන්
දැරියන්ට
කාර්යාලයක්
සිංගප්පූරුවෙන්
යුවලක්
වන්දන
වන්දනා
පුදුමයට
නිරුවත
ස්පාඤ්ඤයට
ස්පාඤ්ඤයේදී
06ක
සෙල්ෆ
හයලක්ෂයක්
හයදෙනෙකුට
වරදකට
කඳවුරුවලට
අකමැති
උතුරා
##යකුත්
සැපයූ
පලස්තී
මාලදිවයිනට
බැංගලෝරය
විශ්මයජනක
විරාමයට
විරාමයක
රජුගේ
වගාවටත්
ආයතනයකට
අරමුදලක්
ග්රහණයේ
හානිවූ
##ජ්ජා
##වරයෙකුගේ
මිනිසාගේ
කුණාටුවකට
කුණාටුවලින්
අලෙවියේ
අලෙවිකරුවන්
අවසානයේදී
ලාංකිකයින්
4000
80ක
80කට
නාමික
නාමල්
යාපනයෙන්
##කිරීමේ
හේරත්ගේ
බිලිගත්
අස්වැද්ද
තත්ත්වයෙන්
ඉතාලියේදී
සම්මානයක්
සම්මානයෙන්
361
348
ඇන්ජෙල
ගල්කිස්ස
##ුද්ද
මාලිගේ
ඩිල්ෂාන්ගෙන්
වර්ජනයෙන්
සරම්ප
##ිදුම්
ප්රදර්ශනයට
විචාරණය
විචාරකයන්
විචාරණයෙන්
දෙපස
මුහුණුපො
අපේක්ෂකයෙක්
පෙම්වතාගේ
පාවාදෙන
හෝටලයක්
ගුරුවරිය
ගුරුවරයාට
කොංග්රසය
ආණ්ඩුවේ
උදර්
උදාවට
උදාවේ
උදාවේදී
ජේකො
ඩයමන්ඩ්
ලිබියාවට
වැටුපට
අප්රිකාවේදී
වැරදීමකින්
අර්ජුනට
විවේකය
විවේකාගාරයේ
ජාවාරමක
භටයින්
භටයෙකු
රයිනාට
වලදී
ශුරයා
ශුරයින්ගේ
##පටයක්
කොල්ලකයි
මැඩගස්ක
මැඩලන්න
සිරියාවේ
ස්මිත්ගේ
ව්යාපෘතියේ
90කට
ඇරයුම
කෙන්යා
බුහුම
කොළරා
මැලේසියාවේදී
ගිලිහෙද්දී
තුන්දෙනෙකුට
පර්ත්
##භාවයට
සුඩානයට
රැසකින්
ස්කෑන්
සිසුන්ට
ව්යාපාරිකයින්
තොටුපළක
ශ්රේෂ්ඨාධිකරණයේ
බන්ධනාගාරයට
බන්ධනාගාරයෙන්
ගැබ්ග
ශීතල
ශීතලක්
##සලර්
##ණයෙන්ම
ආසන්නයේදී
ලාහෝරයේ
සැකකරුගේ
මිනිස්සු
සුවිශේෂී
සන්රයිසස්ට
අකිලගේ
දික්වැල්ලගේ
වෝනර්ට
වෝනර්ගේ
හඳුනාගනී
ගවේෂ
ඩෙයා
ඩෙයාර්
ඩෙවිල්ස්
දවාගනී
සත්වයා
විසිදෙනෙකු
සමරපු
සමරද්දී
සැළක
සැළසුමක්
නැගපු
පොදුරඳ
දැරියන්ගේ
ඇදවැටෙන
ඇදවැටෙයි
විද්යාලයේ
නිර්මාතෘගේ
වයස්කාර
විශ්වාසයෙන්
සුනඛයෙකු
අග්රාමාත්යවරයාගේ
නැගෙනහිරට
39කට
38ක්
75ක්
ඉසව්වේ
දමාගෙන
නංවන
නත්තලේදී
ලියූ
ලියොන්
සලකුණ
##පුරයි
සුනාමියක්
ගෞරවනීය
පෙරේරාගේ
මන්ත්රීවර
මන්ත්රීවරුන්
කාමරයට
කාමරයේදී
කාමාතුර
දූපත
බඳවා
රේටින්
බලවතුන්ගේ
නිවසකින්
ලාභය
ගෙදරට
සෝමාලියානු
##ිවුඩයේ
අංකය
ඉක්මනින්
ජාලයක්
ටයිගර්
දක්ෂතම
දක්ෂිණ
නේට්
පතාන්
පතලක්
පත්රිකාවක්
##ෝෂිත
ප්රමුඛත්වය
ප්රමුඛස්ථානය
වෙළදාම
වෙළඳුන්ගෙන්
ජීවීන්
ජීවතුන්
වේදනාව
ඉදිකිරීමේ
ත්රස්තවාදින්
ත්රස්තවාදියෙකු
හිමියන්ගෙන්
ඉන්දුනීසියාවෙන්
ව්යාපෘතිවලට
ඉදිරිපිටදීම
විනිසුරුට
විනිසුරුගේ
චිත්රපටය
සහනාධාරයට
ඒකකය
පල්ලියක
මිළදී
සදාතනික
##ිෂස්
සුකීගේ
ආයතනවලට
අපහසුතා
කවුන්සිලයට
කුරිර
කුරුම
කුරහන්
ජෙෆ්රි
තැපැල්
ධර්මරාජ
ධර්මදාස
නළය
නළුවෙකු
මුණවීර
යෙදවුම්
යෙදවුම
ලෙනක
සාදයට
සාදයකට
##att
පුත්රයාට
අධිකාරියට
පකිස්තානයේ
පකිස්තානුවන්
වර්ගයක්
කණගාටුදායක
ජනප්රියම
ඖෂධයක්
කෙනඩි
ටියුබ්
පිවිසෙන
පිවිසෙන්න
බාලක
බාලවය
රූපලාව
ලිහිසි
ෆ්ලෝරන්ස්
ආයුධයකින්
අවුරුද්දේ
සැලැස්ම
සැලැස්මට
විකිණීමේ
රාත්රිය
අසේලට
ඇණවුම්
එයාර්වේස්
ඔසාමා
පේර
පවත්වාගෙන
මිතුරාගේ
සොරකමක්
සහභාගිවන
නායකයින්ගෙන්
බැලූනයක්
එළඹෙන්න
කුලප්පු
පිරිවැය
උඩුගුවනේ
සුදානමක්
මනාලිය
කොළොම්බියානු
කොළොම්බියාවට
පිරිපහදුවේ
පිරිපහදුවක්
ප්රදීප්ට
අනාථ
උද්යාන
උද්යානයේ
දීමනාවක්
දහසක
නරක්
මොරිසන්
මොරිෂස්
වහාම
සවුද
##all
ප්රජාවෙන්
ඇමතීමට
මුලික
මුගාබේට
මුගාබේගේ
##ලාභීන්ට
ලෙබනනයේදී
යුගය
මිනීවල
ග්රහලෝකයක්
ක්රමවේදය
වයසැති
යුක්රේනයට
නාමයෝජන
කොමිසම
අක්රියයි
මහමැතිවරණයට
බැග්ඩෑඩයේ
අණසක
අඳී
අඹේ
උරුමයක්
එලවළු
ජොන්ටි
දශකයේ
දශකයකට
බයිසික
හෆීස්ගේ
වෙලාව
වෙලගෙදර
වැලිගම
අපයෝජනයට
හිංසන
දියණියන්
කුමාරට
කුමන්ත්රණ
අතපත්තුට
අතපත්තුගෙන්
දෝෂාරෝප
දෝෂදර්ශනයට
ඇගයීම්
වැළඳුණු
අනුපාතිකය
හානිකරගත්
තෑග්ගක්
ටෝකියෝව
උදුරාගනී
නාගරික
මාතර
සකස
සකසයි
##සෙල්වම්
ප්රසංග
සංස්ථාවේ
සංස්ථාවෙන්
වෙළඳසැල
පසුබසී
අභියාචනා
ගැහැණිය
අන්තවාදීන්ට
ශ්රමිකයින්
අධිවේගය
යොමුකළ
මිනිසුන්ට
ටියුනීසියාව
ප්රතිපත්තියට
දෙපාර්තමේන්තුවෙන්
උෂ්ණත්වයක්
උෂ්ණත්වයෙන්
08කට
ලොරි
ලොරිය
වුණත්
##ෙටයේ
විභාගයක්
අනිවාර්යයි
ජනගහණය
කාම්බෝජය
සැත්කමක්
ක්රීඩකයෙකුගෙන්
කටුනායකට
හිමිකරගත්
හිමිකරගනී
ශූරතාවලියේ
කෙළින්
කෙළවර
නියමුවාගේ
ගම්මානයක්
උද්ඝෝෂණයක
අෆ්රිඩිගේ
විශ්වවිද්යාලයක
87යි
ඇනුමකින්
ඇවිලෙයි
කර්නාට
තෝරාගත්
තෝරාගැනීමේ
ප්රීති
මිටක්
##සරින්
සුභපැ
ගැටළුවක
හිමිකරුගේ
ලොක්කෝ
ඇතුළුවීමට
දෝණිගේ
දෙනෝදහක්
විකාශන
චැලෙන්ජ්
කිලෝවක
නායයෑමෙන්
සන්නිවේදනයේ
තිලංගගේ
හඳුන්වාදෙයි
පල්ලෙකැළේ
ගගනගාමියා
ෆ්ලොරිඩා
ජැමෙයිකානු
ජැමෙයිකාවේ
කප්පාදු
පරිපාලනය
පරිපාලනයේ
පරිපාලනයට
කිඹුලෙක්
ජලාශයට
ආකාරයක
රාමනායක
ශාලාවේ
ශාලාවකට
සිතුව
##පිළි
##ශවික
අදාළව
මැන්කුට්
ලෝකයටම
ස්වීඩන්
හොල්ලන්න
දීපිකා
සේවාවන්
වර්ණපුර
නිමාවෙයි
අනුග්රහයෙන්
තිළිණයක්
යුවළක්
සිහිනයක්
සිරදඬුවමක්
විද්යාඥයන්
7000ක්
අන්දම
කසළ
කිතුණුවන්
ගසාගෙන
ග්ලෝ
ටෙලි
ටික්රිට්
තත්වයට
තත්වයක
දුම්වැටි
දකුණේ
දකුණෙන්
නර්තන
පුවත්පත
බාල්ද
මතකයන්
රණවිර
##කොන්ඩ
සැඟවුණු
රැළියකට
බංගලිදේශයට
බිහාරයේ
අමාරු
රාජකීයන්ට
සාම්ප්රදායික
අඩවියට
කුළුණේ
හැමෝටම
සේවිකාවන්ට
දියමන්තිය
අරමුණක්
නියුක්ති
කෘමීන්
අනුස්මරණ
ඊජිප්තුවෙන්
ලැව්ගින්නක්
සන්ධානයක්
විනිසුරුවරයෙක්
කුවේටයෙන්
ජොන්සන්ගේ
වැසිකිළිය
වැසිකිළියට
අත්හදාබැලීමක
අත්හදාබැලීමකට
මන්නාරමේ
කදුළු
පථය
පත්රය
බෑන්කී
ලැජ්ජා
ලංවෙයි
වස්තුව
වස්තුවක්
සෆාරි
විඳගනී
සමීක්ෂණයක්
පාදයේ
දෙමාප
නවීකරණය
එක්ස්පෝ
බලඇණිය
කැණීමට
එරංගට
කොරෝනාවට
අත්හිටුවන්න
දුමාරයකින්
හරිනවා
නොසතුටින්
සබඳතාවලට
ඩිල්ශාන්ගේ
යුවරාජ්ට
පන්ජාබයට
ඒකකයෙන්
පන්නීර්සෙල්වම්
ලන්සුව
සහභාගීත්වය
කෂෝගිගේ
වෙඩිසිංහගේ
අම්ලා
ආශීර්
ආපදාවලින්
එසවීමේ
කකුල්
ගලවා
ගීයට
ටජ්ම
නෙලීම
යෑමේ
ෆීජි
##illi
##ඝ්රයෙන්
භූකම්පනයෙන්
එකමුතු
ක්රිඩක
පීලිපැන
පදවියට
නිලධාරිනියන්
මතභේදාත්මක
මතභේදකාරි
බෙංගාලයේ
රත්තරන්
අවමංගල්යයට
තොටුපොළේ
පරිභෝජනය
ආජන්ටිනාව
ආජන්ටිනාවේ
අවන්හලක
උගන්ඩාව
ඛේදවාචකයක්
දුෂ්කරතාවක
ආගමන
එමීරය
ඔලුවට
ගබ්සා
බීමතින්
බුද්ධිමත්
මල්ලවපොර
සිලෙත්
සපිරෙයි
සාගතයෙන්
සම්භවයක්
සම්භාණ්ඩ
හුසේන්
හුසේන්ගේ
##සොනික්
ප්රමාණයේ
අනූෂ
පිඹුරා
හෙල්ලෙයි
අත්දැකීම
අත්දැකීමක්
පුත්තලමේ
ත්රිපෝෂ
පොතෙන්
කොරෝනාවලට
අඩාලයි
ස්ථීරයි
කැරැල්ල
කැරැල්ලක්
සත්වෝද්යානයේ
ඉක්වදෝර
ඉක්වදෝරය
ආපනශාල
ප්රජාතන්ත්රවාදී
ප්රජාතන්ත්රවාදය
විගණන
බලාසිටින
බලාසිටියදී
කූඩාර
යෝග්යතා
අබ්දුල්
අබ්දුල්ලා
දුප්පත්කම
Airtel
ආසියාන්
ඇන්ජි
ඔහුගේ
කිමිදුම්
ටූනා
බැනියම්
ලිස්සා
වකාර්
##ahoo
##ෂෙයර්
සංරක්ෂණ
සංරක්ෂණයට
නවත්වයි
වැඩකටයුතු
වැඩිහිටි
වැඩිහිටියන්ට
කිරිකැට
කැසිනි
කැසිනෝ
පන්දුයැව
නිෂ්පාදිතය
කලහකාරී
ගැන්වූ
ගැට්ලින්
ගැට්වික්
පදනම
පුරවරයේ
මරාදාලා
ගෙඩියක්
තනිවම
කටයුතුවලට
ලේකම්වරයාගෙන්
ජෝර්දානයේ
සතොසින්
ඇලස්කාවට
රිචී
මනුස්
හිරෝෂිම
හිරෝෂිමා
බොලිවියාවේ
සර්බියාවේ
වොෂින්ටනයට
ෆ්ලොරිඩාවේ
අනුරාධපුරයේ
කැටලෝනියාව
දිස්ත්රික්
දිස්ත්රික්ක
යහන්ගතවූ
වික්ටෝරියා
වික්ටෝරියන්ස්
නයිට්රයිඩර්ස්ට
ඔස්ටි්රයාව
SAG
අජින්
ආයාචනයක්
ඔන්ලයින්
කෙනෙකුගේ
කබලක්
ගනිද්දී
දෘෂ්යා
දයාසිරිට
පද්මාව
යූරෝ
රදවා
රුමේෂ්
ශේෂාඩ්
ෂැංහයි
සෘජු
ස්ලොව
හොලිවුඩ්
##ලන්ඞ්
##ඩෝනියානු
##feo
ප්රින්සස්
ප්රසූත
කොලොම්බ
විහාරස්ථාන
පාස්කු
දෙදරයි
රැඟුම්
වනවාටු
ජීවත්වන
සොහොන්
සියවසේ
අයුරින්
රෝගීන්ට
ගොවියෙකුගෙන්
කමිසය
කඩඉමක්
මාෆියා
කැනේඩියානු
නිමිත්තෙන්
නයිජිරියාවේ
රිච්මන්ඩ්
මනිලාල්ට
ස්වෛරීත්ව
කෘෂිකර්මාන්තයට
මට්ටමකට
සිල්වාගෙන්
පුරවැසියන්ට
මයික්රොසොෆ්ට්
කුරුණෑගල
උද්යෝගයක්
මාධ්යවේදිනියක්
එකිනෙකාට
කුළුබඩු
ෆින්ච්ගෙන්
නුවරඑළියේ
ටැංකි
චූදිතයන්ට
ත්රිකුණාමලයේ
නොනැවතු
ආලෝකමත්
චරිතයක්
අගවිනිසුරුට
බිඳවැටෙයි
අකරතැබ්බයක්
Dialog
අකුණක්
ඇයගේ
ඉගියක්
එජාපය
එට්කා
කත්මන්ඩු
කීර්තිමත්
චම්පක
චාන්සලර්
ජෙනරාල්
ජිම්නාස්ටික්
ටිබෙටයේ
ඩැමස්කස්
තාරකාවක්
බෞද්ධ
මන්මෝහන්
රඹුක්වැල්ල
රෆාය
රියාස්
වට්ම
වොරියර්
##හමාරක්
##කාලීන
##aceboo
ප්රගතිය
වික්රමය
සංඥා
සංක්රාන්ති
නවතියි
ක්රීඩාලෝලීන්
ක්ලෝරීන්
අප්රසාදය
මහපොළොව
හෙලිදරව්වක්
බලශක්ති
##ත්වේල්ස්
නොහික්මුණු
බ්රෙක්සිට්
ගැටලුවක්
පසුතැවිල්ලෙන්
දිවිනැග
පිරමීඩය
හිට්ලර්ගේ
කල්පිටියේ
මොණරාග
ලොතරැයි
සමගාමීව
හොංකොංහි
සාගින්නෙන්
අනුෂ්කා
මන්දපෝෂණය
වායුගෝලයේ
මහමුදුල්ලා
අළුබදුන
සෙබලූන්ට
අක්රමිකතා
නටරාජන්
මාවෝවාදී
ඇලෙස්ටෙයාර්
ඇණහිටී
සිරදඩුවම්
අඹුසැමි
ජොකොවිච්
නාගසාකි
ඇත්දළ
තණතීරුව
ලිපිගොනු
සුසන්තිකාගේ
ගබ්සාව
යෞවන
ශ්රීදේවිගේ
දොඹකරයක්
ඉලෙක්ට්රොනික
ඩුප්ලෙසි
පරිඝනක
ඩෙන්මාර්ක
පදුකෝන්
විම්බල්ඩන්
DRS
MyD
Plessi
Trofeo
whatsapp
අකමැත්ත
ආරුගම්බේ
ඇහෙන්න
ඇඩිලේ
ඉස්තාන්
ඉංජින
ඊමේල්
ඊසානදිග
එතැනම
කඟවේ
කන්ඩායමට
ඛෙත්තාරාම
ග්වාතමාලාවේ
ගර්භ
ගතකිර
ගයානා
ඝෝෂා
ජස්ටින්
ටැන්සාන
ටැක්සි
තුවක්කු
දිසානායක
දොඩම්
නොරොච්චෝලේ
පතිරණ
බන්දුල
බයකළ
බහලුම්
භික්ෂ
භානුක
මාටින්
මොටාසා
මැනිං
යෝජිත
යාන්ත්ර
රිමාන්ඩ්
රාත්තල්
රමාඩි
රබාඩා
ලීමන්
වජ්පායි
ශ්වසන
සිකුරාදා
සදීර
හගිබිස්
හෘද
හෙරොයින්
හසුනක්
හවුලෙන්
ෆෙඩර
ෆ්රැන්සිස්
ෆාබ්රේස්
##ටියුබ්
##පාර්ශවික
වෙත්තමුණි
ප්රාදේශීය
ප්රමිති
ප්රමාණවත්
ප්රවේගකාරී
ශ්රීසාන්ත්
##ිවෙලක්
සංක්රාන්ත
දෙමුහුන්
අද්භූත
මහතිර්
මහකන්නයේ
සිඞ්නි
මැන්ඩෙලා
මැසෙන්ජර්
කාෂ්මීර
මුශ්ෆිකර්
මුබාරක්
මුළුමනින්
අත්බෝම්බ
පරමාණු
සිරිනිවාසන්
සිරිවර්ධන
රැජිණි
බ්රෙන්ඩන්
බ්රිටිෂ්
විශේෂ
අධිවේගී
සැරිසැරූ
ක්රෙඩිට්
අඩනිරුවතින්
අසර්බයිජ
අත්හරියි
ලැබ්රෝයි
නිරෝෂන්
දරිද්රතාවය
විසුරුවයි
මරදගහමුල
පාර්ලිමේන්ත
හයිපර්සොනික්
මාර්ගෝපදේශ
බීට්රූට්
අනුකම්පා
ජේකොබ්
මැඩගස්කර්
බුහුමන්
බාලවයස්
කර්නාටක
දෘෂ්යාබාධිත
##acebook
Plessis
0ක
00
0යි
04ක්
08ක්
09ක්
1ක
2ට
42ක්
43ක්
5ට
53ක්
56ක්
51ක්
64
6දෙනෙකුට
7ට
72ක්
89
8කින්
8වන
800ක්
80ක්
AI
Asi
Ba
BCC
CIA
FZ
Facebook
Ha
Har
HOT
Li
LB
Mo
Me
No
Opp
Pl
Pho
S6
SL
SPO
Sto
Ti
TV
Toy
US
VID
Vib
WW
WHO
Wad
Yahoo
iP
ov
the
අරණ
අසියානු
අශාන්
අලියා
අස්සේ
ආව
ආභ
ආඥ
ආත්
ආම්
ආදී
ආසන්
ආර්ජ
ආකාශ
ආමේ
ආකර්
ආවේග
ආචාර්ය
ආනල්ඩ්
ඇව
ඇන්ත
ඇසේ
ඇන්ඩ
ඇබැ
ඇණිය
ඇසින්
ඇල්ලෙන්
ඇත්නම්
ඉදි
ඉෂාන්
ඊජී
උල
උන
උළු
උදේ
උගන්න
උච්ච
උන්ම
උකස්
ඌර
ඍජ
ඍතුවේ
එද
එප
එම්බ
එදා
එහා
එම්ම
එව්ව
එයාට
එද්දී
එතුම්
ඒවා
ඒෂාන්
ඒඩ්න්
ඔළ
ඔක්
ඔයා
ඔක්ක
ඔසා
ඔකී
ඔළුව
ඕල
ඕකි
ඕවල්
ඕමාර්
ඕසෝන්
ඕසයේ
කග
කාර
කක්ෂ
කුන්
කව්
කුම්
කාවේ
කලා
කලට
කම්ම
කෘත
කිත්ර
කසුන්
කූරු
කිතුර
කිව්ව
ඛණ්ඩ
ඛේද
ගර
ගඩ
ගළ
ගෑ
ගාන
ගිර
ගුද
ගම්ප
ගැව
ගම්බ
ගාම
ගීය
ගොර
ගායි
ගලා
ගසක්
ගුර්
ගිළ
ගයාන්
ගන්වන්න
ඝන
ඝණ
ඝානා
චක්
චාන
චික
චින්
චාල
චතුර
චෙන්න
චක්ර
ඡන්ම
ජින
ජිම
ජුන්
ජවි
ජූර
ජැක
ජාක්
ටෲ
ටෙල
ටිං
ටයර්
ටෝනි
ඩක්
ඩර්
ඩිස්
ඩුම
ඩෙල්
ඩබල්
ණයට
ත්
තක්
තස්
තුම
තැති
තොට
තමයි
තාරා
දල
දශ
දම්
දන්ත
දුස
දුරු
දින්න
දවල්
දාහ
ද්ව
දන්නා
දෑස්
දනු
දන්නේ
දුවන්න
දකිමින්
දන්වන්න
දිලිප්
ධනය
නු
නන්
නෝද
නාට
නමත්
නදිය
නෙළ
නඩුව
නාරා
නම්බු
පණු
පිස්
පොව
පවර
පදි
පහන
පවාද
පලූ
පසට
පංච
පෆ්
පේන්
පශ්ච
පෝෂණ
පස්සේ
පමාව
පට්ටි
පයින්ම
බෂ
බෲ
බන්
බිර
බංක
බෙන
බුන්
බූර
බයයි
බෙල
බීර
බකි
බාලා
බබා
බත්තර
බග්ඩ
බසය
බතලේ
බසියි
භෂ්
මය
මුව
මිත
මුවන්
මවත්
මීය
මත්ව
මළු
මමි
මදු
මිල්
මීර්
මිත්ර
මල්ලක්
මල්ලෙන්
මාතෘ
මෙන්ම
මාමා
මුවර්
මකුළු
යක්ෂ
යුස
යමු
යටත්
යැන්
යාම්
යාවත්
යපස්
රම
රඛ
රස්
රක්ෂ
රත්ව
රෙස්
රියක්
රිසා
රිංග
රසා
රංච
රසික
රවු
රමී
රාම්
රකිමින්
ලය
ලි
ලග
ලයි
ලංග
ලිට
ලිම
ලතා
ලයින්
ලියෝ
ලියන්
ලංස
ලාමා
ලිඳ
වඩ
වන්
වක්
වකු
වනය
වහළ
වතාව
වදි
වියෝ
වවයි
වස්ත
වංශ
වමත්
වහල්
වන්නට
වචනය
වකාරි
වුනත්
වස්සවයි
ශී
ශම්
ශල්
ශබ්
ශේන්
ශෂී
ශරිෆ්
ශබාබ්
ෂා
ෂික්
ෂෝන්
ෂරියා
ෂෙරීනා
ෂූට්
ෂොයි
ෂාරුක්
සධ
සශ
සාව
සාර
සනී
සොල
සතුරු
සූප
සපත්
සවන්
සිලෝ
සිනා
සසල
සබර
සාධාරණ
හර්
හැන
හින
හයෙන්
හරඹ
හයක
හන්ඩ
හිසර
හීන
හීත
හුබ
හෂාන්
හටන
හෂීම්
ළාබ
ෆිය
ෆර්
ෆාස
ෆයින
ෆෝක්
##ෙඹ
##ෙඩ්
##ෙලට
##ෙඞ්
##ෙණිය
##ෙසින්
##ෙජර්
##ෙවිල්ස්
##ෙඟ්
##යව
##යුරු
##යනයට
##යුත්
##යෝජන
##යෝග
##යන්නට
##යුවල
##යොක්සයි
##යෙජර්
##ිග
##ිගේ
##ිඩ්
##ිෆ්
##ික්කා
##ොරා
##ොච්
##ොනල්
##හෙන
##හිස
##හුණ
##හෙල
##හගත
##හීන
##ුහන්
##රල
##රීම
##රෙන
##රතාව
##රාවේ
##රයෙක්
##රුදු
##රාගෙන්
##ාඩි
##ාශ්ර
##ගව
##ගයි
##ගයට
##ගැට
##ගහන
##ගඩු
##ගන්ට
##ගවී
##ගුල
##ගන්ගේ
##ගිඩ
##ගනිමින්
##ගනියි
##ේධ
##ේවි
##ේන්ට
##ේජා
##සෙ
##සැ
##සිට
##සෙකු
##සයෙන්
##සෙන්න
##සාවක්
##සමින්
##සාධ
##සුවක්
##සලා
##සොන්
##සලක්
##සෙට්
##සරයක්
##ටුවෙන්
##්ජ
##්සා
##ලස්
##ලීමක්
##ලකා
##ලීන්
##ලස්ක
##ලන්ග
##ලිවලට
##කන
##කැ
##කලා
##කමට
##කඳව
##කේෂ්
##19
##17
##මඟ
##මයක්
##මයට
##මාල
##මින
##මානු
##මතිය
##මෝන
##මීර්
##මියර්
##මනයක
##මසාරිස්
##නත
##නම්
##නියාව
##නිල
##නගේ
##නුම
##නියාවට
##නවාලූ
##දෑ
##ද්ර
##දයක්
##දාම
##දියෙන්
##දකම
##දින්නැයි
##ීක
##ීෂ
##ීයට
##ීඩා
##ීකරණය
##ප්රී
##පට්
##පවත්
##පතා
##පලේ
##පික්
##පමණ
##පත්ර
##පන්දුවෙන්
##පැරද
##පෝෂිත
##තාන
##තම්
##ත්රික
##තෙකු
##තාර්
##තියේ
##තපු
##තාන්ය
##තනයෙන්
##තබයි
##ැත්
##ඩින්
##ඩියේ
##ඩුවක්
##ඩිවේ
##ඩෙවිල්ස්
##ෝත්
##ෝටි
##ෝචන
##වුර
##ව්ය
##වරික
##වේ
##වාගත්
##වෙළ
##වල්ලා
##වෙකුගේ
##ළෙයි
##ළිවෙයි
##ළපෙන
##ධායක
##ධිකාර
##ධිකරණයට
##ූක
##බෙ
##බාම
##බාල්
##ණයි
##ණුව
##ණින්
##ණකට
##ණීය
##ණියා
##ණියට
##ණියන්
##ණාමය
##ug
##ul
##ue
##ud
##ush
##ham
##har
##ix
##ite
##ine
##as
##ab
##az
##ail
##ඳුරු
##ඳුන
##ඳපොල
##භීත
##ඹිරිගෙ
##ඹාගොස්
##ඞී
##ශි
##ශා
##ශේෂ
##ශීත
##ශංසා
##ෂවත්
##ෂීය
##ෂන්ට
##ෂුවර
##ෂිහ
##ෂිමා
##ෂකයන්
##ෂේන්
##ෂුවාට
##ෑටි
##ෑවරුන්
##ok
##ow
##op
##oct
##ංස්
##ංහැම්
##ජාර
##ජොං
##ථය
##ථන
##ඟුල
##NG
##චී
##චෝද
##චනයෙන්
##චුවල්
##lk
##et
##jar
##ri
##IM
##ෆො
##ෆ්රා
##ෆෙන්ඩ
##ts
##RA
##ආන්
##ඨාශ
##AT
##vid
##den
##dic
##EI
##ඔය
##න්ඩා
##ියයි
##ියප්ප
##ියානා
##ියහොත්
##ියැං
##ියාදු
##ක්ද
##ක්යා
##ක්තික
##ion
##tion
##්රථ
##්රඩ්
##්රසියේ
##්රමන
##්රදාය
##යිට
##යිල්
##යිෆො
##ාවර්
##ාවෙන
##ාවරණ
##ාවැට
##ාවගෙන්
##ාවාස
##ාවන්ට
##ාවිද
##ාවරුන්
##ාවචනයක්
##ස්පර
##ත්වා
##ත්තුව
##ත්කම
##ුවු
##ුවීමේ
##ුවියන්
##ුවරුන්ට
##ානේ
##ානන්ද
##ානියට
##ානුවෙක්
##ානුවෝ
##ානුවෙල්
##ිකී
##ිකත
##ිකාම
##ිකාවෙන්
##ිකයින්ට
##ිකයෙකුට
##ල්නා
##ල්ඩ්
##ල්ෆ්
##ාරිට
##ිරා
##ිරන්
##ිරිව
##ිරීමට
##ිරෝධී
##ිරිසි
##ුරි
##ුරුන්
##ුරුවට
##ුරුවර
##ුරුදු
##න්දනයේ
##න්දම්මා
##න්දෑවරුන්
##න්දිරා
##යක්ම
##ර්සන්
වෙර
වෙතට
වෙස්ලි
වෙච්චි
වෙසෙන
වෙදකම
##ියාවක්
##ංකාවට
ප්රසු
ප්රගත
ප්රධානයේ
ප්රදානය
ප්රශංසා
##ින්බස්
තරුප
තරවේ
තරහට
තරාදි
##කුට
##කුන්
##කුඩු
##කුමාර
##කුෂිමා
##න්තා
##න්ත්රික
##ායෙන්
##ායාම්
කොද
කොන්ද
කොට්
කොස්ට
කොලි
කොෆි
කොත්තම
කොපමණ
##ිලංකාවේ
##ංගුවීම
##ට්ය
##ට්ගේ
විනි
විතැන්
විටෝ
විජය
විඩියෝ
විතාන
වින්දනයේ
ශ්රීමත්
##ෙනවා
ඉන්ද්ර
##ිවීම
##ිවෙන
##ිවීමේ
##ිවිද
##ිවරුන්
##ිවිෂ
##ිවිධ
##ිතාල
##ිතදිග
කරු
කරුවන්
කරමු
කරවයි
කරලක්
කරච්ච
කරාබ
කරගැනීම
කරගැනීමේ
කරපි
කරගනිමින්
##ිටත්
##ිටඩ්
##ිටුහන්
##ගේත්
##ගේගොඩ
##රුම්
##ාලයට
##ාලිට
##ාලියෝ
##්යාගෙන්
##්යාත්මික
##තුරුවලට
##ිනියට
##ිනියන්
##ිනොවූ
ඇමැති
ඇමතුම
අවියෙන්
අවධාර
අවමන්
අවපාතයක්
අවයව
අවරුදු
##ිසක්
##ිසම්
##ිසරික
##ිසුන්
##ිසුවියන්
වැව
වැඳ
වැල්
වැල්ල
වැව්
වැවි
වැසුම්
වැලල
වැලක
වැසූ
වැන්ඩර්
තරඟව
##ිමි
##ිමඩ
##ිමෙන්
##ිමීර්
සහායක
සහකරු
සහනයෙන්
සහශ්ර
සහරාවට
සහායට
##ල්ලු
##ල්ලම
##ල්ලාට
සංසේ
සංජේ
##රිකා
##රණයෙන්
##රණීය
සමන
සමන්
සමාල
සමතලා
සමාර්ට්
##ෙකුත්
##ෙකුගෙන්
##ුපිට
##ම්පු
##ම්පත
##ම්පූර්
ඇමරිකානුවාට
පාට
පාම්
පාඩු
පාගමන
##ක්ෂම
##ක්ෂාව
##ුවන්ට
##ුවන්ගෙන්
ලංකාවම
ලංකාවෙනුත්
දෙල
දෙස්
දෙවි
දෙදරු
දෙගිඩ
දෙණියා
##යාගත්
##යාමේ
##යාමට
##යාගාර
නවා
##සියුල
ගැනීමක්
##න්නෙක්
##ාදායක
අදින
අදායම
මිලෙන්
මිලර්
මිලිබ
මිලර්ගේ
ක්රිකට්වලින්
##ැරැද්ද
##හාර්
##හාරික
ක්රීඩිකා
ක්රීඩාවලට
ක්රීඩාගාරය
ක්රීඩිකාවක්
ක්රීඩාගාරයේ
##ාගී
##වත්ව
##වත්තෙන්
##ලන්තය
ක්වාන්
ක්වාල
ක්වීන්
ජයකට
ජයගන්නා
ජයසේකර
ජයපැරද
##ුසිසුවියන්
කොරල්
##නීස්
##නීකරණය
##යන්හි
##පතිනිය
##මුළු
අපෙන්
අපගමනයක්
අපිරිසි
##ම්බ්ල
##ම්බොක්
කළල
කළක්
කළින්
කළකට
කළුවර
කළබල
කළින්ම
කළලයක්
##ෙරාලියෝ
තරගයක
තරගවලදී
තරගයකදී
##ලියෝ
##ලියෙක්
##ලියන්ට
##ලියගොඩ
අනන්
අනිල්
අනවස
අනගි
අනුන්ගේ
අනෙකුත්
##ොවේ
##ොවික්
##ොලොත්
පිඟ
පිල්
පිංක
පිත්තට
##ාන්ස්
##ාන්විත
##තුන්ට
මහත්ව
මහකො
මහද්වීප
සිති
සින්දු
සිඟි
මැද්
මැකෝ
මැරුණු
මැස්සා
ජනක
ජනන
ජනගහන
ජනාවාස
##සන්ට
ලෝකෙන්
ලෝකප්ර
ලෝකවාසීන්
##ුන්ට
##වනතුරු
කාණ
කාන්දු
කාටත්
කාටර්
කාන්දුව
කාසල
කාගේද
කාපට්
##ෙන්නේ
එක්කම
එක්රැස්
##වායේ
##වාහි
##වාඩම්
චීන්නු
##ුණුවට
##ස්සල්ල
වෙළඳාම්
##ාතේ
##ාත්රා
හෙලා
හෙලූ
##ූපී
පළඳ
පළවන
පළවා
පළාගිය
පළායයි
කණ්ඩායමකට
කොටුවේ
කොටියෙකු
කොටියෙක්
කොටුවේදී
##තාවයක
වැඩබ
වැඩිකර
වැඩිවන
වැඩියි
වැඩපිල
වැඩපෙන්
##ලිම්
ට්රෝල
ට්රාමි
සුපුරුදු
##සුන්ත
බලන
බලූ
බලයේ
බලපු
බලපත්
බලමුළු
##ත්වයේ
හමාර
හමාස්
කොටස්වලින්
කොටස්වෙළ
පැතුම
පැත්තට
කියමින්
කියන්නේ
කියාදුන්
පිටු
206
208
##ෙස්කා
##ෙස්කෝ
##වරියට
##වරයකු
##ානයකින්
##ානයකදී
කිරන්
##දිති
##කරය
##කරන්
##කරල්
##කරුවා
##කරගන්න
##කරන්නේ
##කරගන්නා
##තාන්ත්රික
මුතු
මුක්ත
මුකේෂ්
මියග
මියුන්
මියයන්නට
මියයාමේ
##ුණුම්
විස්සකට
විස්සේදී
නිළි
නිපැ
නිල්ම
නින්දේ
නිත්ය
නින්දා
නිධානයක්
අත්සන
වෙළඳපලේ
අගනා
අගුන්
අගයකට
වීරය
##ාසජනක
සුගත්
පුනේ
පුටු
පුජාර
ජනපතිත්
ජනපතිවරයෙකු
ජනපතිවරියක්
පරය
පරදින
පරපුර
පරස්පර
පරදිති
##්ලියාවට
වෙනි
වෙනදා
පහව
පහෙන්
පහේදී
පහකරයි
සැප
සැල්
සැසිය
සැප්
සැසියට
සැකිල්ල
සැසියක්
සැගවී
සැතපු
සැණින්
##ක්කෝ
##ක්කරු
##ක්කයා
##ක්කඩුව
අයිතියක්
අයිවරික
කැන්දු
කැප්
කැමැති
කැච්
කැබැ
කැස්ත්රෝ
කැන්බ
සිරකරුවන්ට
සිරවුණු
සිරකරුවෙක්
සිරියානුවන්
සිරකඳව
වූවන්
වූවන්ට
වූෂු
වූවාට
රැළියට
රැඳී
##ප්තිමත්
##වික්රම
##ෙල්ගේ
නායකත්වයක්
නායකයින්ට
වසරකම
##න්ටිනා
තරඟයෙනුත්
වනිඳු
නොය
නොමි
නොතක
නොගෙන
නොතේ
නොපැ
නොගන්නා
නොකරන්න
බැස
බැල්ක
ලොවෙන්
ලොවින්
බ්රයන්
බ්රැත්ව
බ්රෙට්
##කාධිපති
ඉල්ලු
ඉල්ලන්
ඉල්ලුම්
ඉල්ලමක්
ස්ටික
##ාධිය
බෝතල
බෝලය
බෝනස්
අලින්ට
වැටුනු
වැටිලා
වැටුනත්
වැටෙද්දී
වැටලීමක්
පාකිස්ථානයේදී
##ඩ්ල්
##ඩ්න්ගේ
##ඩ්ල්ස්
දේව්
දැයේ
දැක්ක
දැක්ම
දැඩිවේ
##ාපි
අතරමැද
ඇරඹූ
දිනක්
දිනුම්
දිනන්නට
දිනේශ්
දිනපතා
කොරියාවත්
කොරියාවේ
බංග්ලාදේශට
##ාවටත්
##සිජන්
සිටිය
සිටින්න
සිටුවීමට
##ලේඛ
##ෙරේස්ගේ
##ස්තිය
ඉන්දියාවේත්
පසුකළ
පසුබැ
##දෙණිය
නැම්
නැන්දම්මා
මාලූ
මාලන්
මාලාවේ
වාස්ගේ
වාඩම්
ජීවි
විරූ
විරුවන්
විරූපී
##ිප්ර
##ිපොළ
වේඩ්
වේල්ස්
වේලාව
වේක්කයා
පෙරලෙයි
ඉදිකළ
##ික්ස්
සූදු
සූමෝ
සිදුරු
සිදුවේ
සිදුවන්න
බිදී
බින්දුව
බිම්බෝ
බිළිවෙයි
දිවිය
දිවියා
දිවයයි
ඉරේ
භූගත
භූමිත
භූතානයට
ත්රිවිධ
ත්රාසජනක
පොද
පොන්න
පොහො
පොල්ලක්
අගමැතිනි
මෝරා
මෝසුල්
සීසන්
සීතාවක
සීගිර
සීතලේ
සීඝ්රයෙන්
##ීන්ස්
##ීම්වලින්
ප්රතිම
ප්රතිව්ය
සොක්කා
සොබාද
සොඳුරු
ලබාගැනීමට
රටේදීම
ඉවත්කළ
ඉවත්වීමේ
ඉවත්කරයි
ඉවත්වීමෙන්
ඉවත්කිරීම
රථවල
රථවලට
රථවාහන
තරඟාවලියත්
තරඟාවලියකින්
එකත්
එකේදී
එකතැන
එකහමාරක්
රාජිත
රාජධාන
රාජකාරිය
රාජස්ථානයේ
රාජස්ථානයට
රාජාලියෙක්
රාජතාන්ත්රික
##ලටත්
පුහුල
තේරි
##ග්පූර්
##ක්රීය
සියතට
සියරට
සියෙරා
සියෙරාලියෝ
ආයු
දෙකෝටි
ක්රිඩා
රුපවාහ
ඉන්දියාවටත්
##ුනැටි
ජීවිතයේ
බ්රිතාන්යයේදී
එළිය
එළුවෙක්
නිවහන්
සාහි
සාෆ්
සාමුහ
##ත්තෑ
##ත්තුවට
තරඟයේම
ඝාතක
යානාව
පිළිය
පිළෙන්
හිටී
හිටිය
නැවකින්
නැවැත්ව
##බලයක්
අහස්
අහිත
බෝම්බයට
බෝම්බයෙන්
බෝම්බයකින්
වාර්තාවකින්
වාර්තාවලට
##ිකරමින්
##ිකරගනී
අයගේ
අයියා
අයෝජ
අයියාගේ
සේවන
සේයාර
ඉනිමත්
උපදී
උපදින
උපතක්
උපයන
උපාධිය
හදුන්
හදලා
හදගැස්
ලෙස්ටර්
වරදි
වරදින
පන්දුවේදී
ගොන්නට
ගොල්ෆ්
වෙඩික්කාර
වෙඩික්කරු
සිදුවුණ
සිදුවීමක්
සිදුවීමේ
සිදුවීම්
පිපිරිමක්
තුන්වරක්
මුදලේ
මුද්රා
මුදාහ
මුදලකට
මුදාගන්න
##ගියෙකු
රජවරු
අඩියක්
අඩිතාල
සමුගන්නා
සමුගැනීමක්
ඇමතිනී
ඇමතිවරයා
තරගයකට
තරගයකින්
හොරු
හොම්ස්
හිමින
විරෝධයක්
විරෝධීන්
ඇෆ්ගනී
කෝල්මන්
කෝපි
කෝවින්ද
කෝබේ
##කම්කරු
වගාවක්
ව්යායාම්
පී්ර
පැමිණියහොත්
අසූ
අසාම්
අසාධාරණ
අසරුද
අසන්තා
කුලේ
කුටියක
කුල්නා
කුන්දිරා
කුම්බ්ල
ශූරයින්
ශූරයින්ගේ
ශූරයෙකුට
ශූරයන්ට
වීඩියෝවේ
සටනකට
පිරිස්
රෝමය
රෝනු
රෝගියෙකු
තරුණයන්
තරුණයෙකුට
තරුණයාගේ
වෙළඳපොළෙන්
වෙන්කය
තීරණයෙන්
පෙති
පෙලේ
පුද්ගලයින්ට
සාකච්ඡාවලින්
අහිමිවේ
අහිමිවී
ඇමරිකාවේත්
හෙළිකරන
##වැලල
##වැන්නා
##වැදුණු
බිලිවේ
නිෂ්පාදකයින්
නිෂ්පාදකයන්ට
ජාතීන්ට
සංචාරකයෙකු
ලැබේ
ලැබීම්
හැල
හැංග
හැම්ප්
හැලේ
හැමිල්
හැත්තෑ
##ර්ශයක්
සංවිධායක
ඇෆ්ගනිස්ත
ආර්ථිකයන්
ආර්ථීක
105
102
104
10යි
10යේ
10කින්
101ක්
නීතියට
නීතී
නීතියෙන්
පිතිකරණය
ලක්කරයි
ලක්කරමින්
##කාරය
##කාරක
##කාරයා
##කාරියක
ඇෆ්ගනිස්ථානුවන්
##යිලාම
නගින
නගින්න
නගින්නන්
##ිබැට
වෙනස්ම
වෙනස්වන
වෙනස්වූ
වෙනස්වෙලා
කඩුල්ලක්
නිරුප
නිරායු
නිරාවරණය
නිරිතදිග
හිගයක්
හින්දි
හික්කඩුව
##මේලා
ගොඩට
ගොඩගත්
ගොඩගැනීමට
ගොඩකිරීමට
සඳට
සඳකැන්
බැංකුවක්
නිලානි
##යිනුත්
පිටියක
නිදාගන්න
නිදහසක්
නිදහසේ
රැකියාවට
රැකවරණය
රැකගැනීමේ
දැවැන්තයන්
151
159
158
157
153ක්
නුවරටත්
පිළිගත්
පිළිගැනේ
පිළිගන්නා
කාලා
කාලීන
කාලතුවක්
##න්ඩයොක්සයි
ජාත්යන්තරයේ
වැඩිදුර
වැඩිදිය
කලඹ
කලවම්
කලකිරීම
කලම්බු
කලිසම්
කලබලයක්
##වර්ධනට
තුනී
තුෂාර
තැබු
තැබීමට
තැබිමකින්
එල්ලී
දීප්තිය
##ාගාරයෙන්
අධිකම
කාන්තාවකගෙන්
මෙහෙයවීමට
වටකරයි
ප්රංශයේදී
190
196
190ක
පැරදු
නැවතී
නැවතූ
හේතුවයි
දරුවෝ
විසයි
විසිකිර
රුපියලත්
ගොවියාගේ
##ගෙනුත්
දක්වන්නැයි
යුආන්
පරීක්ෂක
පරීක්ෂාව
ගැටුමක
හදිසියක්
ආදිවා
ආදරණීය
ඔබේ
ගැළ
සාමි
පාලනයේ
පාලමකින්
තැනීම
පදවා
සීමාවක්
සීමන්ස්
මාසයක්
මාසයට
කරන්නන්
අස්වූ
අස්විය
අස්වෙන්න
යනවා
##ත්රෝ
සිම්බාබ්වෙන්
සිම්බාබ්වේ
##වාදයේ
##වාදයට
##වාදැයි
සමාගමත්
ජාතිකයෙක්
බස්වයි
පියඹාගොස්
115
119
112
117
113ක්
114ක්
118ක්
113ක
ජලගැ
ආරක්ෂකයන්
ආසියාවෙන්
ආසනික්
කල්දමයි
කල්බදු
මොර්
මොහාන්
මොර්ට
මොබිට
මොනාල
මොමින
123
12දී
12කට
1200
##මයිට්ස්
ඕස්ට්රේලියාවත්
171
176
178
17යි
වසරේත්
සේවාවට
සේවාවේ
දියවීමේ
##දෙනාට
##තමාන
##තමාලා
පුරාව
පුරයේ
පුරප්පා
ලාස්ට්
ලාඩන්
හමුවේ
තුවාලකරුවන්
137
134
1300ක්
13කදී
අමුත්තෙක්
හමුවේත්
උළලේ
එනගමන්
ගත්තු
ගත්තා
දැරියක
##රයකින්
බිලියනපත
ලක්ෂයයි
ලක්ෂයකින්
සෙප්
සෙවීම
සෙමෙන්
##ෝනියෝ
ආනයනයේදී
රොහින්ග
රොෂේන්
වාර්තාකාර
වේගයක්
දුලි
දුන්නේ
##ටිපති
ගණිකාවක්
ගණිකාවන්
ගින්නට
හෙළිදර
සභික
සභාප
සභාවේ
##වන්නන්
සැකසුම්
සැකපිට
සැකසුණු
ප්රාන්තයෙන්
මැතිවරණවලදී
කඩුවක්
කඩදාස
ලොම්බොක්
##ෘතියක්
භාණ්ඩවල
##ංචියට
ක්රීඩකයාගෙන්
14ක
147
142ක්
ඇතිවෙයි
මධු
සමගයි
බලාපොරා
මුම්බාය
පදක්කමත්
පදක්කමෙන්
දුරස්
දුරස්ථ
දුරදිග
##ගැනීමෙන්
පත්ලෙන්
පත්කරන
පත්කරමින්
පත්කෙරේ
##චාරණයක්
##්රාගේ
##ශ්රයේ
බලපාන
බලපොරොත්
භාරගත
භාරගන්න
භාරකරුට
මරී
මරන්න
මරදාන
මරාගනී
මරාවි
16ක
166
163
162
164
16යේ
160ක්
162යි
පැවි
පැවැත්
අවස්ථාවක
දුම්රියකදී
දුම්රියපලේ
බේරුණු
වියලි
වියුක්
වියලයි
ශතකයේ
හරවයි
හරාරේ
හරසරින්
හරකුන්
සැමගේ
සැමෝවා
දර්ශා
දර්ශනයට
දර්ශකයන්
පකිස්ථානයේදී
මධ්යයේ
කුසල්ගෙන්
ඉරාකයේදී
මිනිරන්
යාමේදී
ගන්නට
ගන්නවා
ගමන්ගත්
ගමන්කරන
ගමන්කරමින්
තබන
තබාගනී
පාර්සල්
පාර්සල
බොනී
බොබ්
බොඳව
බොන්නේ
බොත්තම
බොතම්
සුරතල
සුරේෂ්
සුරාජ්
##ේස්
##ේදී
බලාපොරොත්තුවකින්
අරියාදු
පරදවන
කැඳවන්න
කැඳවීමේ
කුණාටුවට
ගෙනේ
ගෙනදෙමින්
බාධක
##ෆ්ට
සමාජගත
චෝදනාවේ
චෝදනාවකට
සංවිධානවලින්
උණුසුම්වීමෙන්
251
252
257
183
187
18කට
1800ක්
185ක
උඩක්
උඩපන්දුවෙන්
ශූරතාවලියට
නේපාලයේදී
පහරදීමක්
##කයන්ගේ
ගිවිසුමේ
ඇඟවීමේ
ඇඟිල්ලෙන්
නිලධාරීන්ගේ
කිංස්
තත්ත්
සිසී
සිසුවෙක්
සිසුසිසුවියන්
##ථමික
කොරියාවේදී
ගෙවා
ගෙවන්න
ගෙවීමේ
විනාඩ
අපේක්ෂිකා
මියන්මාරයෙන්
සැලුන්
සැලකිල්ලක්
අනුමැතියක්
අනුමැතියට
කින්ග්ස්
කතාවූ
කතාවක්
කර්මාන්තයත්
බොරුව
බොරළු
මවකට
මවමින්
අපනයනකරුවන්ගේ
ඩොනල්ට්
100යි
ගේන්න
බිරින්දෑවරුන්
දෙනුන්
දෙනමක්
දෙනාට
දෙනෙත්
යටකරමින්
කිහිපයේදී
මේර
මේවර
ලීට
ලීටර
210
218
217ක්
අරඹන්න
අරඹමින්
යානයකට
සිංහයා
සිංහයෙක්
සිංහයාට
සිංහලෙන්
පාකිස්ථානයත්
විනාශයට
විනාශකාරි
කෘෂ
සිව්ව
අභියෝගතා
තුළින්
අර්බුධ
මෙරාපි
අර්බුදයෙන්
මතක්
මතයක
මතීෂ
මතබෙ
ලිංගිකයන්ට
##ඞ්ට
##ඞ්ස්
අවසානයට
දැමිය
පනවන
පනින්න
පනියි
පනවන්නැයි
##තිකම
තායිලන්තයේදී
ජර්මානු
නයිරෝ
මීද
මීදුම්
මීගමුව
මීටර
මාරිස්ට
යැවීමක්
යැවීමෙන්
##ාහනය
හෝමාග
බ්රසීලයට
පාරාදී
පාරිසරික
රංගනය
රංගනයක
මහේන්ද්ර
මැලේසියා
කෙයා
කෙසේ
කෙයාන්
කෙඳි
අඩුවූ
235
239
238
237
23න්
239ක
239යි
ආහාරය
##දිවියට
හෙලන
හෙලීම
හෙලිනොවූ
කොදෙව්වන්ගෙන්
හොඳට
හොඳයිලූ
දර්ශකයක්
දර්ශකයට
දර්ශකවල
ඛාන්ත්
තර්ජනයක
තර්ජනාත්මක
හැරිස
හැරෙයි
හැරීමට
හැරවුම්
හැරිසන්
##ිසියානා
රැස්කරයි
ඉතාලියෙන්
ආසාදිතයෙක්
ආසාදිතයින්ගේ
30ට
306
303
308
307
301ක
මුල්පෙළ
විදුලියට
මාර්ගයකදී
කතාබ
කතාකළ
තනිකර
තනිකම
වීඩියෝවකින්
අල්ලාගෙන
කැරකී
ගොඩනැං
පැරදවිය
දුරකථනයකට
226
228
2200ක්
220ක්
224ක
කඳුලක්
මාංශ
මාළුව
මාකෝ
##ප්තුවට
ආරම්භවෙයි
කාලගුණික
කාලගුණයට
ව්යාපාරයක්
ව්යාපාරවලට
මූල්යමය
ශක්තිමත්ම
31ට
315
319
317
317ක
බීච්
අත්හිටුවීමෙන්
සම්බන්ධය
කිම්ජොං
249
243
247
අන්නා
අපරාධකරුවන්
##ද්දිය
##ද්දක්
භාණ්ඩාගාරයෙන්
දරුණුම
මහේලත්
ඡන්දයට
මගකට
මගහැර
මවිතයට
විකට
විකුණුම්
##යාටා
අමාත්යවරයෙකු
දැවීගිය
නවතන
ක්රීඩාංගනයට
පෙරළේ
පෙරළුණු
පෙරළියකට
මෙහෙයුම්වලදී
පරීක්ෂණවලින්
පරීක්ෂණාගාරයක්
මහබැංකුවේ
ගිලෙයි
පෙම්යුවල
නියමිතව
නියමුවාගෙන්
නිකුත
##නේඩෝ
ළමයින්ට
වැඩසටහනට
වැඩසටහනකට
ලේකම්ට
ලේකම්වරයෙකු
275
277
තියලා
නෑලූ
නොසලකා
බැලීමක්
බැලුවත්
බැලිස්ට
26ක
260
266
262
අංශවලට
තුනම
පවර්
පවුම
පවුරක්
පවසමින්
පෙන්වාදෙයි
පක්ෂයක්
පක්ෂයෙන්
පක්ෂයකට
ප්රහාරකයාට
කළඹන
කළඹවමින්
විශිෂ්ට
පෙම්වතුන්
සරණාගතයෙකු
දඹුලු
පැනීමට
පැනලා
පැනීමෙන්
පැනවුණු
පැනමාවේ
මිට්
මිදි
මිදේ
වැඩිමහල්
සිදුකිරීමේ
හිඟයකින්
වර්ෂාවට
ඇගවීම්
කන්නයේදී
නතරකරයි
සහතිකය
සහතිකයි
විශිෂ්ඨයන්
වැඩපිළිවෙලට
කිරිපිට
තොප්ප
වලටත්
විනිවිද
සහනදායී
සුළඟත්
මෙක්සිකෝවේදී
200ක
20000
2000ක
දසලක්ෂ
දසදහස
විද්යාර්ථ
මුහුණේ
සාමාජිකයන්ගේ
සිව්දරු
ඊජිප්තුවට
කාර්ම
කාර්යක්ෂ
ගාෆ
තාල්
සාගරයක්
සාගරයේදී
සාගින්නේ
සමුදෙන
එකඟතා
එකඟතාවට
එකඟතාවයක්
එකඟතාවකට
වෛද්යවරයෙක්
වෛද්යවරුන්ගේ
33ක
339ක
333ක
371
37ක්
බෙදීම
බෙදාද
සත්තු
##පාලනය
අනුෂ
පාකිස්තානයටත්
දරුවන්ගෙන්
නෞකාවක
නෞකාවකට
නෞකාවලට
##ිකරණයක්
වැළක්
වැළදී
වැළකූ
වැළපෙයි
පැහැරගැනීමට
කාශ්මීරයෙන්
තහවුර
පසාරු
පලාලි
පලනිස
පලාගිය
පලායන
සෝබර්
වර්ධනයකට
නිවේදන
නිවේදනයට
නිවේදිකාවට
දෙන්නෙක්
පාවී
පාවිච්චි
ශ්රිලංකාවේ
අවමගු
අවමඟුල
අප්රිකාණු
විරෝධතාවෙන්
නිර්මාණයක්
නිර්භීත
කම්කරුවන්ගේ
තොටුපලක්
ධීවරයන්
ධීවරයන්ට
පත්වීම්
මංගේෂ්
ක්ෂමා
ක්ෂීර
නිළියන්
ස්ටෝක්
ස්ටුවර්
තේරීම
තේරීමට
තේරීමේ
පිතිකරුවාට
ප්රධානියාත්
ප්රධානියාගේ
බහුව
බහලූ
බහින්බස්
සතියට
##කෝස්
##ැක්වීමට
කැළඹීමක්
සැමියාට
අර්ධයේ
කන්දහාර්
ගමනේ
ගමනකට
සුබසාධ
සුබ්රමන
පරික්ෂණ
පරිශීල
පරිශ්රයේ
නායකත්වයත්
නායකත්වයෙනුත්
ප්රතිචාරයකට
පිලිපීනයේදී
නයිජීරියාවෙන්
60ක
##ෝරයට
##ෝරියා
##න්ගා
පිහිනා
වැඩේට
විදෙස්ගත
අධිශීත
අධිචෝද
අධිවේගෙන්
මුහුදුබත්
උළෙලක්
මධ්යස්ථානයක
උත්සවයක
උත්සවයේදී
හිලරිගේ
හිලරිගෙන්
කේන්ද්ර
කේරල
තිදරු
තිඹිරිගෙ
මුරණ්ඩු
යොදයි
යොෂිහ
ළඟා
ළඟට
##ෑමයේ
කලාපවල
ස්ථාවරව
ස්ථාවරභාවයට
285
283
2800
289ක
අර්ජුන්
ගිණි
මව්වරුන්
මව්කිරි
මව්තුමිය
කාබන්
කාබන්ඩයොක්සයි
පැතිරූ
පැතිරුණු
පැතිරයන
නොදමන
තහනමටත්
ජපානයටත්
මාරුතයට
වෙනිසියුලාවට
ගුණය
මඟක්
මඟහැර
වයඹ
වතුරත්
සබඳතාවක්
##්රෝං
මැතිවරණයදා
සමුළුවේ
කුමරුන්
සුරූපිනිය
සුරූපිණිය
බටහිරට
දිමුත්ට
350ක්
ඇලප්පෝ
ඇලෙස්කා
කපන
කපිල
කපාගෙන
නැතිවූ
නැතිලූ
නැතිවෙන්න
##සිරස්
විවේච
විවේචනයක්
දිවුරුම්දීමට
මෙහෙයුමකට
හෙළිදරව්වක
තමිල්නාඩුවෙන්
ගෙන්වූ
ගෙන්වීමට
ගෙන්වීම
ගෙන්වාගත්
මනස
මනමාල
විලාස
පුද්ගලයාගේ
දේශපාලනයෙන්
අවස්ථාවත්
සිසුවියගේ
ගහයි
ගිහිං
ඉන්දියානුවෙකු
ඉන්දියානුවා
කැපීමට
සමුළුවත්
අසරණවෙයි
විපක්ෂයේ
විපක්ෂයත්
කැමරාවෙන්
ජර්මනියේත්
ගොඩනැගිල්ලකට
40ක
##ලක්ෂය
##කර්ෂවත්
මහමුද්
දිගටම
හමුදාවලට
විසඳෙන
විසඳුම
විසඳුනු
කැනඩාවෙන්
වැසියන්ගෙන්
තානාපතිවරුන්
295
291
කෙරෙයි
භාවිතයට
සුවඳ
හිසෙන්
##ාබා
##ේනියම්
අවලංගුවීම
හම්බන්තොටින්
300ක
300කට
3000ක්
3000කට
වළට
වළල්ල
වළසුන්
වළලයි
වළල්ලෙන්
වළකින්න
වළල්ලට
දෙවෙන
දෙවියෝ
කැන්ගර
දැල්වේ
මෙන්ඩිස්ගේ
කවුරුන්
##බදය
ප්රමෝද්ය
ප්රශ්නයට
තරගයෙන්ම
රෝගයෙන්
පිතිකරුවන්ට
පන්දුවාරයේදී
සිංගප්පූරුවේදී
450
457
45යි
දඟපන්දු
බද්දෙන්
යුවලට
යුවතිය
රබර්වලට
වන්දනාව
කැබලි
සංචිතයටත්
තරුණියන්ට
සටන්කාමී
පාරිභෝජනයට
ස්පාඤ්ඤයෙන්
06කට
323
324
32ක්
324ක්
අසීරුවෙන්
අළුබඳුනේ
කුරුළු
කුරුල්ලන්
හයවන
##්රිඞ්
සහිතව
වරදින්
බැඳුම්කරවලින්
අකල්
අකුර
ආරාධනය
ආරාධනාව
ආරාධනාවක්
පණක්
හිතන්න
හිතාගෙන
##කරණයේ
කරුණාව
පාසලට
පාසලක්
දෙයක්ම
සැපයීමේ
බිහිවේ
බිහිකරන
ආනයනකරුවන්ට
ගංවතුරින්
ධනංජයට
මාලදිවයිනෙන්
සම්මේලන
ඒකාධ
ගුගල්
ජාවා
වෙරළාරක්ෂක
වෙරළාසන්න
හැසිරෙන
හැසිරවීම
හැසිරෙද්දී
තුන්දින
ආයතනයකින්
අරමුදල්
අරමුදලට
ග්රහණ
ග්රහකයක්
පාරිභෝගිකයන්ට
5000
5000කට
ඩේටා
මට්ටමින්
##ටාල්
##ක්ටොන්
##කාරීත්වය
ගොවීන්ටත්
ඉරානයටත්
වෙළදපොලට
වියදමක්
කුණාටුවක
අලෙවියක්
අලෙවියෙන්
ලාංකිකයෙකු
මුරලිගේ
ගිණුමක්
ගිණුමෙන්
ධනංජයගෙන්
නාමාවලිය
පැටවා
පැටලෙයි
යාපා
සෙනග
සෙනඟ
ප්රේක්ෂකයන්ට
කොමඩු
කොමිලා
##ාලාම්පූර්
අනාවරණය
සැප්තැම්බරයේදී
ත්රස්තවාදීන්ගේ
රෝහලකින්
ආදායම්ලාභීන්ට
තත්ත්වයේ
පෘථිවි
පෘථිවියෙන්
ලියාපදිංචි
360
368
36ක්
3600
344
ඔත්තුකරුවන්
මරණයකින්
වතුකරයට
වතුකම්කරු
##ෝල්ඩ්
##ිතුරන්
අවධානම
අවධානම්
අවධානමක
කිරීම්වලින්
සිරුරේ
සිරුරක
සිරුරත්
මාලිග
මාලිගෙන්
උණුසුමට
ගණන්වල
තහවුරුයි
ඩිල්ෂාන්ට
කිසිදු
කිසිදා
වර්ජින
වර්ජනයක්
සරසයි
සරාගී
සතිපොළ
##ිදන්
##ිදායක
ප්රදර්ශනයක්
විචාරණයට
කියුබාවෙන්
අමතකව
ගොඩබෑ
ගොඩබායි
සෙල්ලමක්
අපේක්ෂකයෙකු
අපේක්ෂකත්වය
දෝනිගෙන්
සිංහයන්ගෙන්
හෝටලයට
ගුරුවරියක්
මන්දිරයේදී
කොංග්රසයෙන්
තාවකාලිකයි
ආණ්ඩුවට
ආණ්ඩුවක්
උදෑ
උදෙන්ම
චිත්රයකට
තිලක්
පෙනි
ලිපිය
වෙන්නේ
සම්පා
සම්පුර්
සම්ප්රදාය
බිළිගත්
බිළිඳු
වැරදුණු
අර්ජුනගේ
විවේකාගාරයට
විවේකාගාරයේදී
ඉන්දියානුවන්ගේ
ජාවාරමට
අස්වැන්නේ
අස්වැන්නට
අක්තාර්
අලිගේ
බෙල්ගෙන්
රයිනා
රයිනාගේ
රයිගම්
වලසෙකු
ශුරතා
ශුරයාගේ
ශුරයෝ
හඬවා
හඬවමින්
හඬපටයක්
හඬාවැට
##ෙකලා
##ිණී
කොල්ලා
කොල්ලයේ
කොල්ලයක්
කොල්ලකන්න
කොල්ලකෑ
කොවිඩ්19
සමූහය
මැඩපවත්
ජනවාරියට
බලාගාරයට
බලාගාරයක
බලාගාරයකට
දඩයක්කරුවන්
සුදුසුයි
ඔස්ට්රේලියාවේ
ඇපයක්
කෙන්යාටා
තිරසාර
බුධ
බුකී
මයිට
වහන්සේගේ
වහන්සේලා
##ගෙඩි
සිද්ධියක්
සිද්ධස්ථාන
සිද්ධියකට
අමරිකානු
අමරිකාවෙන්
බ්රිතාන්යයත්
පුද්ගලයෙකුගෙන්
2019දී
අභ්යවකාශයේ
අභ්යවකාශයේදී
ගිලිහේ
විලියම්ස්ට
48කදී
අක්රම්
අක්රීය
අක්රම්ට
ඇඳුම්
ඇඳගෙන
ඇඳිවත
නරේන්ට
පර්පෙ
පර්වේස්
පර්යන්තය
##ැමූ
##ැමීමේ
ජනිත්ට
ජනිත්ගේ
සුනුව
සුඩානය
රැසකගේ
විශ්වය
විශ්වයේ
සටහනකින්
නගරයත්
අධිකරණයකට
අවදානමකින්
දිල්ලියේදී
සිසුන්ගේ
සත්කාරකයින්
තොටුපළට
තොටුපළක්
නොමැතිවීමෙන්
ප්රමිතිකරණයක්
බන්ධනාගාරයේ
බන්ධනාගාරයකට
බන්ධනාගාරගත
බන්ධනාගාරයකින්
තලේබාන්වරුන්
44ක්
අටක්
කිංග්
පිරිහ
පෙරේරාගෙන්
ශීතාගාර
ශීතාගාරයක්
සෙලවේ
##ගන්වන්න
##කලප
##ෝපකරණ
##ෂිං
මැණික
සුළගේ
සුළෙඟ්
පුහුණුකරුවා
පුහුණුකරුවකු
ලාහෝරයට
සැකකරුට
ක්රියාකාරීන්ගේ
නිකුත්ව
ක්රීඩිකාවන්ගෙන්
රසායන
ප්රිමියර්ලීග්
වෝනර්ගෙන්
හඳුනාගැනීමට
හඳුනාගැනේ
මුස්ලිම්වරුන්ට
මෙටි්රක්ටොන්
උසාව
ගවේෂණය
දවස්
දවසේ
දවසක්
දවටන
නාට්ය
නාස්තිය
ළමුන්ට
##යෝටා
ප්රේමය
විෂය
සමරුවකට
සිහිකරයි
වසංගතයෙන්
වීරයන්
නැගූ
නැගලා
නැගණියට
මිනිසෙකුට
සුරංගට
සුරංගගේ
විද්යාලයෙන්
දිගුකාලීන
සුනඛයින්
දුර්වලයි
දුර්වලතා
මෝදිටත්
අග්රාමාත්යවරිය
391
397
750
ඇසෑමයේ
ඇතිකරගනී
ගවයා
දමලා
දමන්නැයි
දමන්නේ
නත්තලට
පොළට
පොළවට
ලියවේ
ලියවූ
ලියොනල්
සලකුණු
සුනාමියේ
පෙරහර
2017දී
සෙබලා
මහමඟට
යාපනයේදී
ලැයිස්තුවක්
කිසිවෙකුට
ගෞරවණීය
මන්ත්රීවරියක්
කාමරයේ
කාමරයක
දූපතක
දොරටුව
නටන්න
නටමින්
බඳී
බර්න
බර්කින
බර්ලස්ක
මාවතේ
මතුවු
රේල්
වාසිදායක
හිස්වූ
හිස්වැ
මැදපෙළ
සොහොයුරු
නිවසකට
කෙන්යාවට
ත්යාගයට
දෝෂාභියෝගයට
දෝෂාභියෝගයෙන්
දෝෂාභියෝගයකට
අත්වැරද
අත්වැරැද්ද
ඉක්මයි
ඉක්බාල්
ටයිම්ස්
ටයිකොන්ඩ
දක්ෂයි
නේතන්
නේවාසික
වොයෙජර්
වොෂිං
සහෝදරය
වෙළදස
කළමනාකාර
කළමනාකරුවන්ට
කළමනාකරණයට
දැන්වීමක්
ජීවයේ
ජීවීන්ගේ
වේදනාත්මක
ත්රස්තවාදියා
##ට්ටුවලට
ඉදිරිපිටදී
අඟහරුව
වැළැක්වීමේ
හෙලිකොප්ටරය
විනිසුරුත්
සහනාධාරයක්
කෑවා
ගෝව
ගෝනි
ගෝරි
ගෝත්රික
ගෝතමාලා
තෙවැනි
බොලිවුඩයේ
මිළකට
සජීව
හසන්ගෙන්
##ිෂේක
පාපැදියෙන්
පරිමාණයේ
දැක්වේ
දැක්වූ
අප්රිකානුවන්ගෙන්
හිමිකාර
ලැබෙනවාද
150ක
අමාත්යවරයාගේ
පිතිකරුවෙකුගෙන්
දැනුම්දෙයි
බිළිඳාට
සූර්යයා
කවුන්සිලයේ
උත්තර්
කනගාට
කනස්සල්ල
කුරක්කන්
ඩ්රාවි
තැතක්
තුරඟ
නළුවන්
නළුවා
බ්ලේ
බ්ලැට
බ්ලැක්
යෙදීමට
යෙදවීම
යෙදවීමේ
යෙදුනු
සාදික්කා
හසුවේ
හසුරුව
හසුවී
##ේකාර්
##ata
2025
2021
2024
අධ්යාත්මික
බිත්තරයක්
අගමැතිනියගෙන්
ක්රියාවලිය
මෙසීගේ
පකිස්තාන්
වර්ගවාදී
වර්ගවාදය
වර්ගවාදයට
පණිවුඩයකින්
කණගාටුවෙයි
කණගාටුයි
ක්රියාකාරකම්වල
අඟහරුට
අෆ්රිඩී
චන්ඩමාරුත
තෙන්ඩුල්කාර්ගේ
තෙන්ඩුල්කාර්ගෙන්
ද්රව්යවලටත්
නෝට්ටුවලට
පිවිසීමේ
බාලිකා
රූපවාහි
වත්මන්
හොරට
ෆ්ලොයි
##ගැස්ස
##ඩුවලින්
අත්යන්ත්ර
ආයුධයක්
පෙට්ටියේ
හැඩය
හැඩවූ
ලක්මාල්ගෙන්
අතුරුදන්වූවන්
ගාස්තුව
ගාස්තුවෙන්
සොහොයුරාගේ
මැදිහත්වීමක්
මැදිහත්වෙයි
මහලේකම්වරයා
නැරඹිය
නැරඹීමේ
ශිල්පීන්ට
ශිල්පියෙක්
ශිල්පිනියක්
ව්යවසායකත්ව
ව්යවසායකයින්ට
ඇණවුම
ගණුදෙ
ටොනෙ
ටොංගා
ටොනාඩෝ
ටොනේඩෝ
ටොයෝටා
තෝරයි
පවත්නා
පවත්වන්නැයි
මිහිකත
මිහිදන්
රූමතිය
සොරාගත්
ප්රාප්ත
ප්රාප්තිය
ප්රාථමික
සහභාගි
වැඩිවෙලා
නොමග
සංගම්වලින්
එළඹෙයි
කුලහීන
නිලධාරියෙකුගේ
පිතිකරුවාගේ
පද්ධතියකට
මනාලයා
මනාලියක්
මනාලියගේ
බලධාරීන්ගෙන්
ද්විපාර්ශවික
57කට
උද්යානය
උද්යානයක
දීමනාව
දහසය
ලකුණක
වහලේ
වහලූන්
වුඩ්ස්
සවන්ද
සවුත්
සවියෙන්
ළංවේ
ළංවෙයි
ප්රජාවගෙන්
කරගත්ත
මුලස්ථානය
මුලපුරයි
නිපදවන්න
පුතුගේ
විශ්රාමික
රාජකීයයන්
නැවතුන
ලෙබනන්
ජාතිකයන්ගේ
හැකියාවෙන්
චන්ද්රපෝල්
චන්ද්රග්රහණය
ලක්මාලි
යුගදිවියට
සේවකයෙකු
සේවකයෙක්
සේවකයින්ට
රොනාල්ඩෝට
බොඳකර
බොඳවෙයි
බොඳවී
දෙනෙක්ට
ග්රහලෝකයකින්
ධනුෂ්
ක්රමවේදයේ
නායයාමෙන්
කොමිසමෙන්
මහමැතිවරණයේදී
ඔක්තෝබර්
ඛනිජතෙල්
කෙටුම්පතට
03ක
අණක්
අඳූර
උරුමයන්
කන්නය
කන්නයෙන්
කඳුරටට
ජොෂුවාට
ජොෆ්රා
දශකයට
බදුත්
රෙගු
රක්ෂණාවරණය
ලූනා
ලූලා
ලූෂන්
ලූෂන්ට
සනිටුහන්
වෙලාද
වෙලාවේ
මහවැසි
වැඩකරුගේ
සුඛීට
පරිපූර්
අභිරහස
අභිරහසක්
අසළදී
කුමාරවරුන්
කුමාර්ගේ
කුමන්ත්රණය
කුමන්ත්රණයේ
මූලස්ථාන
මූලස්ථානයට
අතපත්තුගේ
අත්හදාබැලීම්
අත්හදාබැලීමට
විකුණූ
විකුණන්නන්
ඇමෙරිකාවේදී
ඇගයීම
ජෝර්ජියානු
වැළඳගත්
පස්දෙනෙකුට
හානිකරගන්න
ලිබියාවේදී
විශ්වවිද්යාලයේ
චාරිකාවක
උපදේශකවරයෙකු
උපදේශකවරුන්ට
සහෝදරයාගේ
අධ්යාපනය
කරුණාරත්නගේ
ගණුදෙනුව
ගණුදෙනුවල
ගණුදෙනුවකට
46ක්
55ක්
ආක්රමණයකට
උසස්වීමක්
කතකට
කතෝල
කතානායක
කතානායකට
දෑස
නාගයෙකු
පානයෙන්
සකබර්ග්
##කේට
##මාවශේෂ
වැයවන
සංස්ථාව
නවකයෙක්
නිහඩ
නිහතමාන
ක්රීඩකයකුගේ
අභිමානයක්
සියලූම
ක්රියාන්විත
අසලදී
පිතිකරණයෙන්
කිඹුල්
අවිශ්කගේ
පත්වූවන්
පත්වූවන්ට
පත්වූවන්ගේ
පිහිටවූ
පිහිටුවන්න
අධිවේගයට
අධිවේගයෙන්
වැදගත්කම
ප්රවේශපත්ර
ඩිවිලියස්ගෙන්
ටියුනීසියා
සෙබළුන්ගේ
ප්රතිපත්තියේ
ශෂිකලාට
තෙරපී
තෙරපීමෙන්
පටයක්
පටියක්
පෝතා
පෝලියෝ
පෝලිම්
පුර්ණ
රත්රන්
ලෝරා
ලොරියේ
ලොරියක්
ලොරියක
වුණේ
ශරීෆ්ගේ
##සිවලට
##ැදිමීර්
##unc
ප්රචාරය
විභාගයට
##ස්ටර්ග්රෑම්
පැළඳ
පුතාට
ජනපතිනියගේ
ජනපතිනියගෙන්
පීඩනයට
නිලවරණයේ
යුධෝපකරණ
ගැලවී
ගැලීමෙන්
ගැලවෙන්න
සැමරීම
සැමරුමට
ශූරතාවලියෙන්
ශූරතාවලියේදී
කෙළවල්ලා
අන්තිමේදී
කම්හල්වලට
ක්ෂේම
පිහිටුවමින්
ප්රකෘතිවීමක්
සචින්ගෙන්
ඔක්තෝම්බරයේදී
විශ්වවිද්යාලයකට
උවදුරක්
උවදුරින්
දයාසිරිගේ
මැකලම්ට
53ක
524
ආවරණයේ
ආශ්රම
ඇවිලූ
උල්කාවකට
කල්ලියක
ගාලගෝ
ඩිෆෙන්ඩ
තෝරන
දොස්තර
පෙන්නපු
පෙන්නලා
මඩකලප
මිටිය
මිටිම
ලහිරුට
වෘත්තිය
වරුන්ගේ
වරුසාවක්
සඟවන
සඟවාගෙන
සඟරාවට
සිනබන්
##පොළට
ප්රතිකර්මයක්
අවන්හලට
කාටවත්
වෙළඳාමට
බලකායේ
බලකායට
අධ්යක්ෂවරයා
සංගීතය
නිවාඩුව
නිවාඩුවක්
සාක්ෂිය
සාක්ෂරතාව
කාලසටහනට
කාලසටහනක්
පැරීසිය
ලොක්කන්
ලොක්කන්ට
ඇතුළේ
ඇතුළට
ජයග්රාහකයන්
ජයග්රාහකයා
විකාශයක්
ක්රීඩාංගණවල
ක්රීඩාංගණයක
කිලෝවකට
යොදවා
එන්නතකට
සැපයුම්කරු
ප්රේක්ෂකයන්ගේ
ප්රේක්ෂකයන්ගෙන්
බිලිඳිය
බිලිඳියට
බිලිඳියක්
ප්රචන්ඩකාරි
විනිසුරුවන්ට
කෙනෙක්ට
ජැමෙයිකාව
ජැමෙයිකාවට
ජැමෙයිකාවෙන්
කප්පාදුවට
කප්පාදුවකට
පරිපාලනයෙන්
ක්රියාමාර්ගවලට
කිඹුලෙකු
කපුගෙදරගෙන්
කන්ටේනරයක
කන්ටේනරයකින්
ජලාශයක
ජලාශයකට
සකර්බර්ග්ට
වොට්සන්ට
වොට්සන්ගේ
ශිෂ්යත්ව
ශිෂ්යයෙක්
මූල්යාධාරයක්
ආකාරයේ
ආකාරයට
ආසියාකරයට
ඇරබ
ඉන්ස්ට
ඉන්ෂුවර
ඉන්ස්ටර්ග්රෑම්
ඕමානය
ඕමානයේ
ඕමානයට
නොලබා
යූටියුබ්
යුත්තේ
ශාලාවලට
සිතා
##ෙසෙන
##ගොඩින්
##පාරක්ෂක
ප්රියන්ත
සිපිරි
සිපගෙන
##වාසීන්ගේ
බලකොටුව
බලකොටුවක්
බලකොටුවත්
බලකායෙන්
පැදගෙන
පැදිකරු
ස්පර්ශ
උපදෙස
හොල්ලමින්
දීපවාල
175ක
සේවකයින්ගෙන්
ඉතියෝපියාවෙන්
හයිටිය
රැස්වීමක
පෙරළිකාරයා
රියදුරා
රියදුරෙකු
රියදුරාට
තිළිණය
ආයෝජකයන්ගේ
සම්පූර්ණයෙන්ම
කෞෂාල්ගේ
විශ්වාසභංගය
නේටෝව
නේටෝවට
ගුණතිලකගේ
ගුණතිලකගෙන්
විද්යාඥයන්ට
ඇන්ඩර්සන්ට
ඇන්ඩර්සන්ගේ
ධම්මිකට
ජනනේන්ද්රිය
ජනනේන්ද්රියක්
793ක්
821
99න්
99යි
අන්දමන්
ග්ලයිෆො
දුවයි
දකුණට
පුරුක්
පුවත්පත්
මතකයක්
වට්ටමක්
සතියකින්
සවාරියක
##වර්ස්
වැලන්ට
වැලිකඩ
පාතාලය
සැඟව
සැඟවූ
රැළියක්
##වේගාස්
වාහනයක්
වාහනයකට
සංග්රහය
පෙත්සම
සේවිකාවන්
දුෂණයෙන්
ඇතුලූවීමට
සහයෝගිතා
කෘමියා
පවුල්වලට
පවුලම
පවුලක්
මංගල්යයට
සතුටට
සතුටක්
ලැව්ගින්නේ
ගුවන්තොටුපලේදී
ව්යාප්තියත්
විනිසුරුවරයා
විනිසුරුවරයෙකු
ඉසුරුට
දූපත්වල
ගබඩාවල
කුවේටය
රූපවාහිනි
ආණ්ඩුකාරවරයාගේ
වෘත්තියට
මන්නාරමෙන්
6000
උරෙන්
උරහිස
කදුකරයේ
ගමම
ගමගේ
ගමකට
ගඟට
ජම්ෂෙ
ඥාතීන්ට
ටෙන්ඩරය
දිරිය
පථයක්
පථයට
පින්ලන්තයේ
පුවරුව
පුවරුවේ
පුවරුවක්
ලංවූ
වස්තු
හූති
හතුරුගේ
##ඩියානුවන්
විඳින
සමීක්ෂණවලින්
සමාරම්භයට
පාදය
පාදයෙන්
මැසිවිලි
රැජිණිකාන්ත්
නොසන්සුන්ත
එරංගගේ
විරහිතයි
අධිරාජ
අමීර්ගේ
නිව්ගිනියාවේ
අඩපණයි
නගරාධිපතිවරයෙකු
ආසියාවටම
ආසියාවටත්
දුර්ලබ
අරගෙනත්
ගෙළවැළල
ගංඟා
ගංඟාවේ
මොහොතකින්
අනුශුර
සම්මුතියක්
සම්මුතියෙන්
සබඳතාවයක්
සබඳතාවකට
තමිල්නාඩුවටත්
වළක්වන
වළක්වන්න
වියට්නාම්
යුවරාජ්ගේ
කෞතුකාගාර
කෞතුකාගාරය
කෞතුකාගාරයක්
පොළොවේ
පොළොවට
පෙට්ටියත්
හැකියාවක්
මාධ්යවේදියෙකුට
පිරිවැටුමේ
මහරැජිණගේ
මහරැජිණගෙන්
තල්මසුන්ගෙන්
ජනරජයේ
විප්ලවකාරී
මුෂාරෆ්ට
අම්මයි
අම්ලාට
අම්බලන්ග
ආශාව
ආක්රමණික
ආක්රමණයෙන්
ආපදාවක්
ඇල්ලකින්
එසවූ
එසවීමට
එන්ජින්
ඔරන්
ගලවයි
ගීසා
ගී්රසියේ
ගත්තේ
ගත්තොත්
තදින්
තදබදය
තාත්තයි
නූඩ්ල්ස්
නාලිකාව
නාලිකා
නරඹන
නරඹයි
නරඹන්නන්
නෙලීමට
බාබර්
මලික්
මදුරෝ
ෆිෆා
ෆින්ලන්තයෙන්
පාපතර
පාපොච්
නවීනතම
වැඩියෙන්ම
කැළෑ
කැළලක්
බැහැපු
කටාරයේදී
දිවයින්වලට
එකමුතුවක්
එකතුවෙයි
ක්රිඩකයින්
අයදුම්පත
හිමපතනයෙන්
නුවරඑළියට
තැබීම්වලින්
පදවියක්
මහාචාර්යවරයෙකු
දූෂක
දූෂිත
පූජිත
පූජනීය
පූජකයා
කුමරියක්
අතවරයට
දඩයම්
වර්ගීකරණයේ
පාර්ශවික
නිලධාරිනියක්
විපර්යාසය
පෙන්ටගනයෙන්
සුද්දන්ට
සුද්දන්ගේ
තාප්පයක්
අවමංගල්යය
තොටුපොළට
තොටුපොළේදී
සුබපැතුම
වාරිකයක්
ග්රීන්ලන්තයේ
යුවලගේ
සෙනසුරාදා
දෙපිලේම
පිරිපහදුවක
ගිනිකන්දක්
අබේට
අබේසිංහ
ආජන්ටිනාවට
අවන්හලක්
අවන්හලකට
සංවත්සරයට
ප්රතිසංස්කරණය
අජ්මාන්
අම්මාගේ
ආගන්ත
ඇටය
ඉටුකරගත්
එමීරයට
ඔලිව
කෙලින්ම
කෙලෙසූ
ඞීසල්
පෑලියගොඩ
බුද්ධගය
යාළුව
රකින්නන්
රයිනෝසිරස්
වෝන්ට
වෝහාරික
වරුන්ගෙන්
සිලින්
හියුස්
##ුකමට
##ටරෙට්
##ckගේ
ශ්රීලංකාවට
ශ්රීදේවීගේ
ක්ලාක්ට
අනූෂා
පිඹුරෙකු
සිංට
එක්වීමේදී
මුඛවාඩම්
නිශේධ
සැහැල්ලු
ගැටලූව
ගැටලූවක්
නිවහනට
නිවසේදී
අඩස්සියෙන්
රැකියාවලට
ප්රධානියෙකුට
බලපෑමෙන්
බලපෑමකින්
ඇතුලත්
නියාමනය
නියාමනයට
පොල්තෙල්වලට
ක්රියාකාරීත්වය
නිර්දේශයක්
ගිම්හානය
රිදෙන්න
පිරිමින්ගේ
රොකට්ටුවකින්
ක්රිස්ටිනා
ක්රිස්ටියාන
ගිණුමටත්
කොමසාරිස්වරිය
අක්මාල්ට
අක්මාල්ගේ
කොල්ලකරුවන්ගෙන්
අමරිකාවේ
මානසිකත්වය
මැදිහත්වීම
මැදිහත්වීමට
රෙදිපිළි
ප්රවීණයන්
ශාරුක්ගේ
විගණකාධිපති
උල්කාපාත
උල්කාපාතයක්
ස්වීඩනය
ස්වීඩනයේ
රණතුංගට
අධිරාජ්යයාගේ
ඉංග්රීසීන්ට
චින්නම්මාට
චින්නම්මාගේ
ගඩාෆිගේ
වනාන්තරය
##පැවැත්වීමට
ආධ්යාත්මික
ආසියාතික
ඇන්ඩ්
ඉඳන්
උදානට
උදානගේ
කයිරෝ
කිමිකෝ
ටූටාල්
තල්ලු
තටාකයේ
දොට්ට
නඩුවක්
නංගී
නංගිට
නැටූ
පුවරු
පුවතක්
පළිගන්න
බසයක්
බස්රථ
බැනවැදුණු
බණ්ඩක්කා
මගියෙකු
මගියෙක්
ලිස්ස
වකවානු
වඳුරු
සෑදෙයි
හපන්
හපන්නු
##ගිරියේ
##uple
විවාදයේ
නවත්වන්න
අපරාජිතව
මැදුරට
2030
කිරිකැටි
අනතුරුදායකයි
සංගණනය
ප්රතිවාදියෙක්
ප්රතිප්රහාරයකට
සොයිසාට
ඉලෙක්ට්රික්
අහමඩ්ට
සේනානායකට
ගොදුරක්
අසාධ්යයි
රෝයිට
හැකර්වරුන්
හැකර්වරුන්ට
නිරීක්ෂණය
නිරීක්ෂණයට
කලහකාරි
පදනම්
ආසියාවම
128කට
නියමුගේ
මාධ්යවේදියාගේ
දුරකතන
ලේඛන
ලේඛකයෙක්
කටයුතුවලින්
යෝජනාවලියක්
ජෝර්දාන
පෙළපාලිය
පෙළපාලියකට
පසමිතුරන්
පසෙකලා
සතොස
පරිත්යාග
රිචඩ්
සුළගින්
කාමරයකට
බලවතුන්ගෙන්
බොලිවියාවට
සර්පයා
සර්බියාවට
ගුජරාටය
ගුජරාටයේ
මව්බිමේදීම
වොෂින්ටනයේ
හිංසනයන්ට
ප්රසාද්ට
වෙළඳසැල්වල
ජෙරුසලම
දිරිගැන්වීමක්
දිරිගැන්වීම
බුලත්වලට
විද්යාඥයින්ගෙන්
කැටලෝනියාවට
නොසතුටෙන්
සමීපයට
සමීපතම
හංගේරියාව
හංගේරියාවේ
හංගේරියානු
බ්රහස්පතිට
බ්රහස්පතින්දා
ආදරවන්තයන්ගේ
ආදරවන්තයින්ගේ
නයිට්රයිඩර්ස්
පැපුවානිව්ගිනියාව
පැපුවානිව්ගිනියාවේ
ඔස්ටි්රයාවෙන්
Covid
Couple
අජන්ත
ඇළකට
ඔටාගෝ
කුවින්ස්
කුවීන්ස්
කමින්ස්
ගෝල්ඩන්
ජාකර්තා
ටිකක්
ටිකට්
ඩුටරෙට්
තට්ටුවෙන්
දළඹු
නාසය
පන්තියේ
පන්තිකාම
බළල්
බට්ලර්ගේ
භයංකාර
මර්ධන
මර්ධනයට
මිනිත්තු
යූරියා
රුමේනියාවේ
රකින්නාට
රකින්නාගේ
ලඟට
වහලයට
ෂැංග
සුමත්රා
සුමාත්රා
හුදෙකලා
ෆුකුෂිමා
##ුහගත
##ලන්ඩ්
##ing
##tos
ප්රදානයක්
ප්රදානයන්
ප්රකෝප
ප්රකෝටිපති
ප්රසූතියට
කොන්ඩේ
කොලොම්බියාවේ
##ිස්ථානයේදී
මිලින්දට
ජයගෙනා
මහින්දානන්ද
පළගැට
ගුවන්යානයක
පැන්ඩා
පැකේජය
පැකේජයක්
පුෂ්පරාජ්
පුෂ්පකුමාර
රැඟෙන
වනෝද්යානයක
පිලිගනී
අයුරින්ම
පීරිසි
ගැල්මකට
ආසාධිත
ආසාධනය
කමිසකරුවන්
25000ක
කිඹුලා
කිඹුලාට
සැලකිලිමත්
හෝල්ඩර්
හයිබ්රිඩ්
හයිබ්රිඞ්
##යුතුයි
සම්මන්ත්රණ
සම්මන්ත්රණයක්
කැනේඩියානුවන්
නිමිති
බේරාගත්
චැපල්ටන්
පරික්ෂාවට
පරික්ෂණයක්
ඇලෙක්ස්
ඇලෙක්සි
ස්වෛරීත්වය
ශ්රේණිගතකිරීමේ
ශ්රේණිගතකිරීම්වල
කෘෂිකර්මාන්තය
පැටවෙකු
උදාවන
රේගුවට
රේගුවෙන්
අපහසුතාවයට
අපහසුතාවයක
මුණගැසේ
උද්ඝෝෂන
මව්බිමේදී
සරසවියක
උද්යෝගයෙන්
දෑවැද්දට
මාධ්යවේදිනියකට
දුපත්වල
දුපත්වලට
ශාස්ත්ර
ශාස්ත්රි
ඔස්ට්රියාවට
තණතිල්ලේ
එකිනෙකා
දුම්වැටිය
කෘමිනාශකයක්
කුළුබඩුව
මංකොල්ලය
මංකොල්ලකරුට
නොනැවතී
ගප්ටිල්ට
අගවිනිසුරුවර
අකරතැබ්බය
අස්ථි
අස්ථාව
ඊයම්
ඊයෙත්
ඕස්ටේ
ඕස්ට්ර
කබඩි
කෲස්
කම්බි
කට්ටිය
කවුළුව
කෑගල්ලට
කිව්වේ
ගජබා
ගැරීම
ඩයිනස
ඩයිනමයිට්ස්
නායිදු
නායිකාව
නායිකාවට
පිසින
පතුලේ
පේෂක
පේෂාවර්
පෝලිමේ
බුරුන්
භීතිකාව
මිර්සා
මනාප
මත්තලට
මත්තලින්
යමීන්
රක්ෂිතය
ලුවිස්
ලුවිසියානා
ලස්සනම
වදින්න
වුවහොත්
වත්තලින්
සළකා
සල්පිටි
සොවින්
සන්ධානය
ළදරුවන්
ළිඳක
##මසිරි
##ure
වෙස්වලා
තරබාරුකමට
කොලරා
කොට්ටයක
සංස්කෘත
සමෘද්ධි
දෙපිළටම
මහාධිකරණයට
හෙදියන්
පැත්තකින්
පිටරටට
නිපුණ
නිධියක්
සුහද
සැම්සන්
සැම්සුන්
රැදවියන්
රැදවියෙකු
නොගෙවූ
නොගෙවීම
බ්රෝඩ්
බ්රවෝගේ
ගැටළුවට
පෙරේරාට
සූමාට
පොසිලයක්
මෝරෙක්
ඉන්දුනිසියානු
සියවසකට
පිළිමයක්
මුද්රණය
මුදුනට
රජකුමරු
හොරාට
අසල්වැසියාගේ
කුඩාම
පිරවුම්හලක
ගොඩගැසේ
191කට
1996
1977
ගොවිපල
ගොවිතැනට
භාෂාව
සෙළවේ
උත්පාදනය
සුරැකීමට
ලොකුහෙට්ටිගේ
ලොකුහෙට්ටිගේට
මතධාරීන්ට
මතධාරියෙකු
ග්රෝන්ප්රී
විදුහල්පති
ධනවතුන්
කඩාවැදුණු
මළසිරුර
වැඩපිළිවෙළක්
වැඩපිළිවෙළකට
කාර්යාංශය
පුපුරායාමේ
නිර්මාණකරු
නිළවරණයේ
නිළවරණයට
284යි
මන්දගාමීයි
කවුරුන්ද
ගුටිබැට
ගිනිතබා
මුරලිදරන්
පැටලුණු
පැටලුනු
විචාරකයෙකු
අපේක්ෂකත්වයට
මැඩගස්කරයේ
ගැබ්බර
නැගිටින
පොළොන්නරුවේ
පෙරහුරුවක
සර්දාරි
සර්දාරිට
බින්ලාඩන්ගේ
ඇල්ජීරියාවේ
කන්යාභාවය
වෙළඳසැලකට
බෙදාහැරීම
මහරැජිනට
විගමනික
නායයෑම්වලින්
අනුග්රාහකත්වය
කසකස්ථානයේ
ග්ලැසිය
ග්ලැඩියේ
ඵලදාව
ඵලදායීතාව
බ්රැඩ්මන්ගේ
කෝටිපතියන්
ජැක්සන්ගේ
##ශීලතා
ඇඹුල්දෙන
ඇඹුල්දෙණිය
තටාකාංගනයේ
රාවණා
පසමිතුරුකම්
කදවුරකට
මෘදුකාංගයක්
මැක්ස්වෙල්ට
විශ්ලේෂකයන්
වරප්රසාදයක්
නජීබ්ගේ
සිරමැදිරියක
ක්රොඒෂියාව
Apple
Blue
Kockගේ
Pujar
Tele
අචිනි
අංගනයේ
අම්පාර
අලියෙකු
අයින්ස්ට
අතිනත
අෂ්රෆුල්
ආලේපන
ඇදීගොස්
ඉන්ටපෝල්
කදවුරු
ගරිල්ලා
ගායිකාවක්
චාපෝගේ
ජිප්
ජෙරම්
ජිහාඩ්
ටාබට්
ටි්රලිය
ඩැහැගනී
තෘප්තිමත්
දනගැස්වූ
දූරියන්
ද්රවශීලතා
නදියේ
නඟින්නන්
නිසාද
පපුවේ
පලිබෝධ
බල්බ
බිස්කට්
බස්සයි
භීතිකාවක්
මානුෂීය
මාදිලියේ
මාපක
යහපාලනය
යුනෙස්කෝ
රාම්ප
රීති
රංජිත්
රැවට
රාන්ග්පූර්
ලුහු
ලංගමයට
වින්ඩෝස්
වාදය
ව්ලැදිමීර්
වවුනියාවේ
ෂෙවාග්
සායනයකට
සතුරන්
සවුත්වේල්ස්
හකුලා
හලාවත
ෆේම්
##රූස්
##ූමාකර්
##ony
වෙහෙසෙන
ප්රයත්නය
කොස්තාපල්
විදිහට
වික්රමසිංහ
කරදරයක
අවධමනයක
සංසර්ගයෙන්
දෙරටේ
ක්ලාර්ක්
ජයන්ති
කළහකාරී
පිට්ටනියට
පිම්මකට
පිපිඤ්ඤා
මහතාගේ
සික්සස්
මැසිඩෝනියානු
මැස්සන්ගෙන්
පළපුරුද්ද
අත්නොහ
වීදුරුව
සුල්තාන්වරයා
පරිහානියට
පරද්දන්න
නොගැළපෙන
ස්මාරක
බෝනික්කන්
කටුකුරු
මැතිසබයට
පෙරලීමෙන්
ප්රතිඅපනයන
එළදෙනුන්
පිළිරුවක්
රජවරුන්ගෙන්
කෝවිලේ
අසනීප
කුඹුරුවලට
රෝමියෝ
හැඟීම්
හැඬවූ
රුධිරය
කාලසීමාව
පැරගුවේ
මහාබාධක
ජලජීවී
මොකක්ද
126කට
මෙච්චරයි
ලාස්වේගාස්
කමාන්ඩෝස්
මධුරෝ
දුරේක්ෂය
දෙනෙතින්
225යි
ඡන්දදායකයන්
දහරාවක්
නොසැලකිල
බේරාගයි
රත්මලානේ
ගිණිකෙලි
ප්රභාකරන්ගේ
මහමොළකරු
සන්නාමයක්
ප්ලෙසිට
වන්දනාවක
සෙල්ෆියක්
පලස්තීනයේ
අස්වැද්දීමේ
ඇන්ජෙලෝ
මුහුණුපොතට
උදර්පන
ගවේෂකය
ඩෙයාඩෙවිල්ස්
සැළකිලි
කාමාතුරයෙක්
කුරිරු
කුරුමිණි
මිනීවලවල්
අඹේවෙල
දෝෂාරෝපණයක්
සකසන්නැයි
වෙළඳසැලකදී
අභියාචනාධිකරණයට
සුභපැතුම
අන්දමන්ද
බාල්දුවෙයි
##illiers
බුද්ධිමත්ම
කූඩාරම්
පන්දුයැවීම
හිරෝෂිමාවට
අජින්ක්යා
පද්මාවතී
කොලොම්බියාව
නොනැවතුන
චාන්සලර්වරිය
ජෙනරාල්වරයා
රෆායල්
වට්මෝර්
වොරියර්ස්ට
මහපොළොවට
දිවිනැගුමෙන්
මොණරාගල
අනුෂ්කාගේ
MyDoct
ඇඩිලේඩ්
ඉස්තාන්බූල්
ඉංජිනේ
කඟවේනා
ගර්භනී
ටැන්සානියාවේ
භික්ෂූන්
යාන්ත්රණයක්
මැන්ඩෙලාගේ
කාෂ්මීරයේ
මුළුමනින්ම
අසර්බයිජානය
බාලවයස්කාර
BCCI
Harm
LBW
Moun
Medic
Note
Oppo
Photos
SPOT
Toyo
VIDEO
Viber
Wade
ආභරණ
ආඥාදායක
ආම්ස්ට
ආසන්නයෙන්
ආර්ජන්ටිනා
ඇවිලී
ඇබැද්දිය
ඊජීප්
උච්චාවචනයක්
ඌරන්ගේ
ඍජුව
එදිරිව
එම්මානුවෙල්
එයාටෙල්
ඔක්සිජන්
ඔක්කොම
ඕකිඩ්
කගිසෝ
කක්ෂගත
කව්ද
කුම්භ
කාවේරි
කිත්රුවන්
ඛේදවාච
ගරන්න
ගඩොල්
ගායිකා
ගුර්කා
ගිළුණු
චානක
චින්ත
චාලට්
චක්රලේඛ
ජිමී
ජවිපෙ
ටෲඩෝ
ටෙලිවිෂ
ඩිස්නිල
ඩුමිනි
තක්සේ
තස්මේ
දලයිලාම
දශම
දම්වැ
දුස්ර
දින්නොත්
දාහත්
ද්වන්ධ
දනුෂ්ක
නුගේගොඩ
නෝදර්න්
නෙළීම
පවාදීම
පලූදු
පශ්චාත්
බංකොලොත්
බෙලරූස්
බීරූට්
බකිංහැම්
බාලාංශ
බත්තරමු
භෂ්මාවශේෂ
මයොන්
මිතුද
මත්විරෝධී
මුවර්ස්
යක්ෂයා
යමුනා
යැන්සි
යාම්වලින්
රසාක්
ලයනල්
ලිමිටඩ්
වක්කරයි
වකුගඩු
වතාවටත්
වදිද්දී
වස්තූන්
ශීතක
ශල්යක
ශබ්ද
ෂොයිබ්
සධීර
සාවද්ය
සනීපාරක්ෂක
සිලෝන්
හන්ඩ්රඩ්
හිසරදයක්
හුබෙයි
ළාබාල
ෆියුරි
ෆයිනස්
ප්රසුත
ප්රගතියක්
ප්රධානයේදී
තරුපහේ
කොට්ඨාශ
කොත්තමල්ලි
විනිශ්ච
විටෝරි
කරාබුනැටි
කරපිංච
අවධාරණය
වැල්ලවායේ
වැන්ඩර්සේ
සංසේචනයෙන්
දෙගිඩියාවෙන්
දෙණියායේ
##යාගාරයක්
##සියුලර්
මිලිබෑන්ඞ්
ක්වාලාලාම්පූර්
ජයපැරදුමෙන්
අපිරිසිදු
කළුවරේ
අනවසරයෙන්
##ොවික්ට
මහත්වරුන්ගේ
මහකොමසාරිස්
මැද්දේ
ලෝකප්රසිද්ධ
කාන්දුවකින්
වැඩපිලිවෙලක්
වැඩපෙන්වූ
ට්රෝලර්
කොටස්වෙළඳපොල
නිපැය
නිල්මහ
සැතපුම්
අයිවරිකෝස්ට්
කැන්බරා
නොමිළේ
නොතකයි
නොතේරෙන
නොපැමිණ
බ්රැත්වේට්
ස්ටිකර්
බිම්බෝම්බ
භූමිතෙල්
පොහොසත්
සීගිරිය
ප්රතිව්යුහගත
සොබාදහ
පුහුලන්
තේරිම්
සියෙරාලියෝන්
රුපවාහිනී
සාහිත්ය
සාමුහික
හදගැස්ම
මුදාහරී
අඩිතාලම
කෝවින්ද්
අසරුදීන්ට
කුම්බ්ලේ
වෙන්කයියා
හැමිල්ටන්
නීතීඥ
නිරායුධ
කාලතුවක්කු
මොර්ටාසා
මොබිටෙල්
මොනාලිසා
මොමිනුල්
පුරප්පාඩු
රොහින්ග්ය
කඩදාසි
කිංස්වුඞ්
නයිරෝබි
මාරිස්ටෙලා
හෝමාගම
ගොඩනැංවීමට
නිකුතුවට
බැලිස්ටික්
විද්යාර්ථයට
කාර්යක්ෂම
තහවුරුවෙයි
අවමගුලට
මංගේෂ්කාර්
ස්ටුවර්ට්
සුබසාධනය
සුබ්රමනියම්
අධිචෝදනා
වළකින්නැයි
සතිපොළේ
මැඩපවත්වයි
පර්පෙචුවල්
අත්වැරදීමකින්
අත්වැරැද්දක්
ටයිකොන්ඩෝ
අඟහරුවාදා
රූපවාහිණි
ෆ්ලොයිඩ්
ටොනෙඩෝ
රෙගුලා
ගාලගෝට්ටි
ඩිෆෙන්ඩර්
ඉන්ෂුවරන්ස්
ජම්ෂෙඩ්
ගෙළවැළලාගෙන
අම්බලන්ගොඩ
පාපොච්චාරණයක්
බුද්ධගයාවේ
ක්රිස්ටියානෝ
භයංකාරත්වය
ග්ලැඩියේටර්ස්
Pujara
MyDoctor
Medicine
එදිරිවාදී
ටෙලිවිෂන්
